{
  "</s>": 0,
  "<unk>": 1,
  ".": 2,
  ",": 3,
  "\u2581\u306e": 4,
  "\u2581the": 5,
  "\u2581,": 6,
  "\u2581\u306b": 7,
  "\u2581to": 8,
  "\u2581\u306f": 9,
  "\u2581\u3092": 10,
  "\u2581of": 11,
  "'": 12,
  "\u306e": 13,
  "\u2581\"": 14,
  "?": 15,
  "\u2581\u3066": 16,
  "s": 17,
  "\u306f": 18,
  "\u2581and": 19,
  "\u2581a": 20,
  "\u2581\u305f": 21,
  "\u3092": 22,
  "\u2581I": 23,
  "\u2581": 24,
  "\u2581in": 25,
  "\u2581\u304c": 26,
  "\u2581you": 27,
  "\u2581-": 28,
  "\u306b": 29,
  "\u2581that": 30,
  "\u2581\u3068": 31,
  "\u2581is": 32,
  "\u2581\u3067": 33,
  "\u304c": 34,
  "\u2581\u3057": 35,
  "\u2581it": 36,
  "\u2581\u307e\u3059": 37,
  "\"": 38,
  "\u2581for": 39,
  "!": 40,
  "\u2581\u3053\u3068": 41,
  "\u3068": 42,
  "\u2581(": 43,
  ":": 44,
  "\u2581\u306a": 45,
  "\u2581\u307e\u3057": 46,
  "\u2581\u3082": 47,
  "\u2581be": 48,
  "\u2581\u3044": 49,
  "\u2581was": 50,
  "\u2581\u304b": 51,
  "t": 52,
  "\u3067": 53,
  "\u2581on": 54,
  "\u2581with": 55,
  "\u2581have": 56,
  "\u2581not": 57,
  "\u2581are": 58,
  "\u2581we": 59,
  "\u2581this": 60,
  "\u3060": 61,
  ")": 62,
  "\u2581\u305d\u306e": 63,
  "\u2581\u3067\u3059": 64,
  "\u2581\u4eba": 65,
  "\u2581The": 66,
  "\u2581\u308c": 67,
  "\u2581as": 68,
  "\u2581\u3088\u3046": 69,
  "...": 70,
  "\u2581he": 71,
  "\u306a\u3044": 72,
  "\u2581they": 73,
  "\u3067\u3059": 74,
  "\u2581\u3044\u308b": 75,
  "\u2581his": 76,
  "\u2581\u3059\u308b": 77,
  "\u2581will": 78,
  "\u2581me": 79,
  "\u2581can": 80,
  "\u3066": 81,
  "\u3057\u305f": 82,
  "\u3063\u3066": 83,
  "\u2581your": 84,
  "\u2581from": 85,
  "\u2581\u3042\u308b": 86,
  "\u2581You": 87,
  "\u305f": 88,
  "\u2581do": 89,
  "\u2581what": 90,
  "\u2581\u3053\u306e": 91,
  "\u304b": 92,
  "\u306a": 93,
  "\u2581God": 94,
  "\u307e\u3059": 95,
  "\u2581by": 96,
  "\u2581all": 97,
  "\u3063": 98,
  "\u2581\u306a\u3044": 99,
  "\u2581\u305d\u308c": 100,
  "\u2581\u304b\u3089": 101,
  "\u2581at": 102,
  "\u2581my": 103,
  "\u3063\u305f": 104,
  "\u2581one": 105,
  "\u2581It": 106,
  "\u2581or": 107,
  "\u2581\u3093": 108,
  "\u3082": 109,
  "\u2581And": 110,
  "m": 111,
  "\u2581\u8005": 112,
  "\u2581\u795e": 113,
  "\u2581their": 114,
  "\u2581\u79c1": 115,
  "\u3088": 116,
  "\u2581who": 117,
  "\u2581\u3046": 118,
  "\u2581\u307e\u305b": 119,
  "\u2581\u305f\u3061": 120,
  "re": 121,
  "\u2581them": 122,
  "\u2581What": 123,
  "\u2581about": 124,
  "\u3044": 125,
  "\u2581\u3042\u308a": 126,
  "\u2581an": 127,
  "\u2581We": 128,
  "\u2581were": 129,
  "\u2581Jehovah": 130,
  "\u3057\u3066": 131,
  "\u2581He": 132,
  "\u2581\u4f55": 133,
  "\u2581\u3055": 134,
  "\u304b\u3089": 135,
  "\u2581out": 136,
  "\u2581him": 137,
  "\u2581but": 138,
  "\u2581so": 139,
  "\u2581know": 140,
  "\u2581had": 141,
  "\u2581there": 142,
  "\u2581has": 143,
  "\u2581\u30a8\u30db\u30d0": 144,
  "n": 145,
  "-": 146,
  "\u2581would": 147,
  "\u30fb": 148,
  "\u2581our": 149,
  "\u2581up": 150,
  "\u2581[": 151,
  "\u25811": 152,
  "\u3053\u3068": 153,
  "\u3059\u308b": 154,
  "\u2581\u3084": 155,
  "\u2581did": 156,
  "\u2581people": 157,
  "\u2581just": 158,
  "\u2581us": 159,
  "\u2581like": 160,
  "\u2581when": 161,
  "ing": 162,
  "\u2581\u7684": 163,
  "\u2581time": 164,
  "\u2581if": 165,
  "\u2581\u3042\u306a\u305f": 166,
  "\u2581But": 167,
  "\u2581\u3044\u3046": 168,
  "\u3093\u3060": 169,
  "\u308b": 170,
  "]": 171,
  "\u2581So": 172,
  "\u2581\u3067\u3057\u3087": 173,
  "\u2581\u3053\u308c": 174,
  "\u2581no": 175,
  "\u2581\u305f\u3081": 176,
  "\u2581'": 177,
  "\u2581\u3082\u306e": 178,
  "\u2581her": 179,
  ";": 180,
  ".\"": 181,
  "\u2581\u81ea\u5206": 182,
  "\u2581been": 183,
  "\u2581\u306a\u308a": 184,
  "\u2581more": 185,
  "\u2581\u2015": 186,
  "\u2581\u30fb": 187,
  "\u2581\u305d\u3046": 188,
  "\u2581In": 189,
  "\u2581\u5f7c": 190,
  "\u2581here": 191,
  "\u2581\u5e74": 192,
  "\u307e": 193,
  "\u3055": 194,
  "d": 195,
  "\u2581get": 196,
  "\u2581A": 197,
  "\u3057": 198,
  "\u2581some": 199,
  "\u2581This": 200,
  "\u2581\u3089\u308c": 201,
  "\u2581right": 202,
  "\u2581don": 203,
  "\u2581\u8056\u66f8": 204,
  "\u2581Bible": 205,
  "\u2581\u3070": 206,
  "\u306d": 207,
  "\u8005": 208,
  "\u2581Jesus": 209,
  "\u30fc": 210,
  "\u2581go": 211,
  "\u2581could": 212,
  "\u2581those": 213,
  "ll": 214,
  "\u2581see": 215,
  "\u2581\u3057\u304b\u3057": 216,
  "\u2581They": 217,
  "\u2581now": 218,
  "\u2581That": 219,
  "\u4eba": 220,
  "\u2581said": 221,
  "\u2581\u308c\u308b": 222,
  "\u2581these": 223,
  "\u2581good": 224,
  "\u2581life": 225,
  "\u2581\u30a4\u30a8\u30b9": 226,
  "\u2581No": 227,
  "\u2581how": 228,
  "\u306b\u306f": 229,
  "\u2581way": 230,
  "\u2581may": 231,
  "\u2581\u3067\u3057": 232,
  "\u2581\u307e\u305f": 233,
  "ed": 234,
  "\u2581\u4e2d": 235,
  "\u2581which": 236,
  "\u2581\u306a\u308b": 237,
  "\u3093": 238,
  "\u2581she": 239,
  "\u2581How": 240,
  "\u2581into": 241,
  "\u2581than": 242,
  "\u2581other": 243,
  "\u2581then": 244,
  "\u2581want": 245,
  "\u25812": 246,
  "\u2581over": 247,
  "\u2581man": 248,
  "\u2581\u4eba\u3005": 249,
  "ve": 250,
  "\u308f": 251,
  "\u2581\u4e00": 252,
  "\u2581should": 253,
  "\u2581going": 254,
  "\u2581only": 255,
  "\u2581think": 256,
  "\u2581does": 257,
  "\u2581\u305d\u3057\u3066": 258,
  "\u2581\u3067\u304d": 259,
  "\u2581make": 260,
  "\u3084": 261,
  "\u2581\u308f\u305f\u3057\u305f\u3061": 262,
  "\u2581got": 263,
  "\u2581many": 264,
  "\u2581\u6642": 265,
  "\u305b\u3093": 266,
  "\u4f55": 267,
  "\u2581world": 268,
  "\u306a\u304b\u3063": 269,
  "\u2581also": 270,
  "\u2581things": 271,
  "\u2581...": 272,
  "\u2581\u3053\u3046": 273,
  "\u2581need": 274,
  "\u2581\u306a\u3063": 275,
  "\u2581even": 276,
  "\u3044\u305f": 277,
  "\u2581back": 278,
  "\u2581\u3069\u3046": 279,
  "\u2581If": 280,
  "\u2581say": 281,
  "\u2581\u5f7c\u3089": 282,
  "\u2581because": 283,
  "\u79c1": 284,
  "\u2581\u672c": 285,
  "\u2581\u2010": 286,
  "\u2581years": 287,
  "\u2581such": 288,
  "\u2581\u3064\u3044": 289,
  "a": 290,
  "\u2581come": 291,
  "\u2581work": 292,
  "\u2581\u306a\u3089": 293,
  "\u2581take": 294,
  "\u3067\u306f": 295,
  "\u3066\u308b": 296,
  "\u25814": 297,
  "\u2581very": 298,
  "\u5f53": 299,
  "\u4e8b": 300,
  "\u2581first": 301,
  "\u2581day": 302,
  "\u2581two": 303,
  "\u25815": 304,
  "\u2581\u3069\u3093\u306a": 305,
  "\u25813": 306,
  "\u3089": 307,
  "\u2581\u8ff0\u3079": 308,
  "\u2581down": 309,
  "\u2581\u65e5": 310,
  "\u4e2d": 311,
  "\u2581any": 312,
  "\u2581\u4eca": 313,
  "ly": 314,
  "\u2581\u306a\u304f": 315,
  "\u2581help": 316,
  "\u2581\u3060": 317,
  "\u2581made": 318,
  "\u306e\u304b": 319,
  "\u2581She": 320,
  "\u2581There": 321,
  "\u2581\u5f7c\u5973": 322,
  "\u2581Why": 323,
  "\u2581much": 324,
  "\u2581where": 325,
  "\u3088\u3046": 326,
  "\u2581\u7b2c": 327,
  "\u2581its": 328,
  "\u2581before": 329,
  "\u2581being": 330,
  "\u2581really": 331,
  "\u2581\u6b21": 332,
  "\u2581\u308f\u305f\u3057": 333,
  "\u2581\u4e16\u754c": 334,
  "\u2581\u541b": 335,
  "\u2581\u3059\u3079\u3066": 336,
  "\u2581\u4ed6": 337,
  "\u3042\u306a\u305f": 338,
  "\u2581\u3053\u3053": 339,
  "\u2581\u591a\u304f": 340,
  "\u2581When": 341,
  "\u258110": 342,
  "\u2581\u5fc5\u8981": 343,
  "\u304f": 344,
  "\u2581\u8a3c\u4eba": 345,
  "\u308d\u3046": 346,
  "\u3057\u3087\u3046": 347,
  "\u3057\u307e\u3059": 348,
  "\u2581love": 349,
  "\u2581well": 350,
  "\u2581something": 351,
  "\u304f\u308c": 352,
  "\u3058\u3083": 353,
  "\u2581let": 354,
  "\u300f": 355,
  "\u2581/": 356,
  "\u2581\u3069\u306e": 357,
  "\u2581\u3088\u3063": 358,
  "\u2581\u3088\u308a": 359,
  "\u25818": 360,
  "\u2581\u304a": 361,
  "\u2581Well": 362,
  "\u2581\u8003\u3048": 363,
  "\u2581too": 364,
  "\u2581Yeah": 365,
  "\u2581must": 366,
  "\u2581\u9593": 367,
  "\u2581earth": 368,
  "\u2581after": 369,
  "\u3044\u3044": 370,
  "\u6642": 371,
  "\u2581new": 372,
  "\u2581\u30af\u30ea\u30b9\u30c1\u30e3\u30f3": 373,
  "\u2581\u307e\u3067": 374,
  "\u3067\u304d": 375,
  "y": 376,
  "\u2581For": 377,
  "\u3060\u3051": 378,
  "2": 379,
  "\u2581\u5bb6": 380,
  "\u3044\u3066": 381,
  "\u2581little": 382,
  "\u2581\u4ffa": 383,
  "\u2581never": 384,
  "\u2581find": 385,
  "\u2581Do": 386,
  "\u2581\u4eba\u9593": 387,
  "\u3042\u308a": 388,
  "\u305f\u3061": 389,
  "\u2581\u898b": 390,
  "\u2581\u304f\u3060\u3055\u3044": 391,
  "\u3042\u308b": 392,
  "\u304b\u308c\u3089": 393,
  "\u2581\u306a\u305c": 394,
  "\u2581through": 395,
  "\u2581Oh": 396,
  "\u2581\u3079\u304d": 397,
  "\u3082\u306e": 398,
  "er": 399,
  "\u2581\u4e8c": 400,
  "\u3093\u3067": 401,
  "\u3053\u306e": 402,
  "\u2581\u5f8c": 403,
  "\u2581give": 404,
  "\u3042\u306a\u305f\u304c\u305f": 405,
  "\u258115": 406,
  "\u2581As": 407,
  "\u2581\u304d": 408,
  "\u2581own": 409,
  "\u2581\u3067\u304d\u308b": 410,
  "I": 411,
  "\u2581most": 412,
  "\u2581\u524d": 413,
  "\u25817": 414,
  "\u2581All": 415,
  "\u2581\u3082\u3046": 416,
  "\u307e\u3067": 417,
  "\u2581\u554f\u984c": 418,
  "\u2581look": 419,
  "\u304c\u3042\u308b": 420,
  "\u2581children": 421,
  "\u2581off": 422,
  "\u2581\u30ad\u30ea\u30b9\u30c8": 423,
  "S": 424,
  "\u305d\u306e": 425,
  "\u2581name": 426,
  "\u3067\u3082": 427,
  "\u3088\u3046\u306b": 428,
  "\u2581Witnesses": 429,
  "\u2581\u305f\u308a": 430,
  "\u2581gonna": 431,
  "\u2581says": 432,
  "\u2581another": 433,
  "\u2581\u300e": 434,
  "\u258112": 435,
  "\u2581\u30da\u30fc\u30b8": 436,
  "\u2581same": 437,
  "\u2581why": 438,
  "\u2581My": 439,
  "\u2581thing": 440,
  "\u305d\u308c": 441,
  "\u3044\u308b": 442,
  "\u3057\u307e": 443,
  "\u2581Now": 444,
  "1": 445,
  "\u2581still": 446,
  "\u2581home": 447,
  "\u2581doing": 448,
  "\u2581family": 449,
  "\u2581Christ": 450,
  "\u2581am": 451,
  "\u2581Is": 452,
  "\u2581use": 453,
  "\u2581\u3060\u3051": 454,
  "\u2581long": 455,
  "\u2581\u3078": 456,
  "\u305d\u3046": 457,
  "\u2581\u5fc3": 458,
  "\u3067\u3042\u308b": 459,
  "in": 460,
  "\u2581men": 461,
  "\u65b9": 462,
  "e": 463,
  "\u2581\u3067\u3082": 464,
  "\u2581page": 465,
  "\u2581Let": 466,
  "\u2581\u3042\u3063": 467,
  "\u2581Yes": 468,
  "\u2581year": 469,
  "\u5f7c": 470,
  "\u2581\u8a00\u8449": 471,
  "\u2581away": 472,
  "\u2581times": 473,
  "\u2581\u79c1\u305f\u3061": 474,
  "b": 475,
  "\u2581tell": 476,
  "\u2581found": 477,
  "\u306a\u3089": 478,
  "\u3063\u3066\u3044\u308b": 479,
  "\u2581put": 480,
  "\u305e": 481,
  "\u6570": 482,
  "\u266a": 483,
  "\u2581might": 484,
  "\u25816": 485,
  "\u2581\u50d5": 486,
  "\u2581\u4e0a": 487,
  "\u2581\u307b\u3069": 488,
  "\u2581others": 489,
  "\u258120": 490,
  "\u2581Christian": 491,
  "\u2581every": 492,
  "\u2581\u5bfe\u3059\u308b": 493,
  "\u5e74": 494,
  "\u2581great": 495,
  "\u25819": 496,
  "\u2581Allah": 497,
  "\u2581\u5834\u5408": 498,
  "\u30a2\u30c3\u30e9": 499,
  "\u2581\u5b50\u4f9b": 500,
  "\u2581\u3089\u308c\u308b": 501,
  "\u306a\u304f": 502,
  "\u2581place": 503,
  "\u3068\u3044\u3046": 504,
  "\u2581used": 505,
  "\u308a": 506,
  "\u2581\u306a\u3069": 507,
  "\u2581today": 508,
  "\u9054": 509,
  "\u258111": 510,
  "\u2581One": 511,
  "\u3066\u3044\u308b": 512,
  "\u2581\u305b": 513,
  "\u2581C": 514,
  "\u2581true": 515,
  "\u2581three": 516,
  "\u2581came": 517,
  "\u2581Paul": 518,
  "\u2581mean": 519,
  "\u884c": 520,
  "\u2581\u305a": 521,
  "\u306a\u3051\u308c": 522,
  "\u2581To": 523,
  "\u3067\u3042": 524,
  "\u2581person": 525,
  "\u2581called": 526,
  "\u308d": 527,
  "the": 528,
  "\u2581again": 529,
  "\u2581each": 530,
  "\u25813:": 531,
  "\u2581\u53d7\u3051": 532,
  "\u2581\u826f\u3044": 533,
  "\u2581part": 534,
  "\u51fa": 535,
  "\u2581keep": 536,
  "\u2581\u6708": 537,
  "\u2581last": 538,
  "\u2581\u540c\u3058": 539,
  "\u2581Then": 540,
  "\u3057\u3066\u3044\u308b": 541,
  "\u2581\u3082\u3057": 542,
  "\u2581\u8a9e": 543,
  "\u2581become": 544,
  "\u2581\u6642\u9593": 545,
  "\u2581\u751f\u6d3b": 546,
  "\u2581\u611b": 547,
  "\u2581\u76ee": 548,
  "\u2581\u3057\u308c": 549,
  "\u6211\u3005": 550,
  "\u2581example": 551,
  "\u2581\u4eca\u65e5": 552,
  "\u25812:": 553,
  "\u2581--": 554,
  "\u2581old": 555,
  "\u3064": 556,
  "\u2581\u5927": 557,
  "--": 558,
  "\u2581told": 559,
  "\u2581\u738b\u56fd": 560,
  "\u3055\u308c\u305f": 561,
  "\u306a\u306e": 562,
  "\u30b9": 563,
  "\u2581death": 564,
  "\u2581\u304a\u524d": 565,
  "\u304b\u308c": 566,
  "\u2581feel": 567,
  "\u2581course": 568,
  "\u2581around": 569,
  "\u2581\u52a9\u3051": 570,
  "\u2581better": 571,
  "\u2581against": 572,
  "\u2581believe": 573,
  "\u3089\u308c\u308b": 574,
  "\u2581\u5bb6\u65cf": 575,
  "\u5b50": 576,
  "\u258118": 577,
  "\u2581\u7814\u7a76": 578,
  "\u2581\u4e8b\u67c4": 579,
  "\u2581\u7bc0": 580,
  "\u2581\u70b9": 581,
  "\u3088\u308a": 582,
  "\u65e5": 583,
  "\u305f\u3044": 584,
  "\u2581\u304a\u3089": 585,
  "\u305f\u3081\u306b": 586,
  "\u2581\u4e0d": 587,
  "\u2581human": 588,
  "\u2581\u3088\u308b": 589,
  "\u2581end": 590,
  "\u2581thought": 591,
  "\u2581under": 592,
  "\u3042\u308a\u307e": 593,
  "\u624b": 594,
  "\u5fc5\u8981": 595,
  "\u2581\u4e0e\u3048": 596,
  "\u2581\u3088\u304f": 597,
  "\u4e0a": 598,
  "\u304b\u3063\u305f": 599,
  "\u2581Lord": 600,
  "\u3089\u308c": 601,
  "\u2581left": 602,
  "\u2581kind": 603,
  "\u2581Hey": 604,
  "\u4e3b": 605,
  "\u2581\u3068\u3053\u308d": 606,
  "\u3068\u3057\u3066": 607,
  "\u672c": 608,
  "\u2581\u529b": 609,
  "\u2581\u4f7f\u5f92": 610,
  "\u2581Okay": 611,
  "\u2581number": 612,
  "\u2581always": 613,
  "\u3053\u308c": 614,
  "\u2581\u4e00\u3064": 615,
  "\u2581\u3064\u307e\u308a": 616,
  "\u2581\u305d\u308c\u3067": 617,
  "\u308c": 618,
  "\u2581means": 619,
  "\u2581done": 620,
  "\u2581heart": 621,
  "\u2581\u3044\u3044": 622,
  "\u258113": 623,
  "\u2581ever": 624,
  "\u76ee": 625,
  "\u2581upon": 626,
  "\u2581\u3055\u3089\u306b": 627,
  "\u2581Christians": 628,
  "\u3078": 629,
  "\u2581\u7ae0": 630,
  "\u308f\u308c": 631,
  "\u2581\u95a2\u4fc2": 632,
  "\u2581\u5949\u4ed5": 633,
  "\u2581faith": 634,
  "\u2581without": 635,
  "\u2581\u30d1\u30a6\u30ed": 636,
  "\u2581His": 637,
  "\u2581\u5730": 638,
  "\u258114": 639,
  "\u2581book": 640,
  "\u2581S": 641,
  "E": 642,
  "\u2581words": 643,
  "\u2581talk": 644,
  "\u2581call": 645,
  "\u2581Come": 646,
  "\u3055\u3093": 647,
  "\u8a00\u3046": 648,
  "\u2581show": 649,
  "r": 650,
  "\u77e5": 651,
  "\u258116": 652,
  "\u2581while": 653,
  "\u2581truth": 654,
  "\u7269": 655,
  "\u2581\u304a\u3044": 656,
  "\u2581\u305f\u3044": 657,
  "\u2581house": 658,
  "\u2581\u624b": 659,
  "\u2581Kingdom": 660,
  "3": 661,
  "\u2581anything": 662,
  "\u2581Who": 663,
  "\u2581parents": 664,
  "\u3069\u3046": 665,
  "\u5206": 666,
  "\u2581days": 667,
  "\u306b\u306a\u308b": 668,
  "\u2581John": 669,
  "\u2581\u5b9f\u969b": 670,
  "\u2581Not": 671,
  "\u2581\u4e07": 672,
  "\u2581sure": 673,
  "\u258117": 674,
  "\u2581\u305d\u308c\u3089": 675,
  "\u5bb6": 676,
  "\u8a71": 677,
  "\u2581\u3069\u3053": 678,
  "\u2581Your": 679,
  "\u3042": 680,
  "\u2581water": 681,
  "\u2581young": 682,
  "\u2581ones": 683,
  "\u2581\u3060\u308c": 684,
  "\u2581\u89aa": 685,
  "\u2581B": 686,
  "\u2581\u6570": 687,
  "\u2581\u66f8": 688,
  "\u2581\u5b97\u6559": 689,
  "\u2581live": 690,
  "\u2581between": 691,
  "\u2581Don": 692,
  "\u3044\u307e": 693,
  "\u3053\u3053": 694,
  "\u2581Are": 695,
  "\u81ea\u5206": 696,
  "\u2581spirit": 697,
  "\u306b\u3082": 698,
  "\u2581actually": 699,
  "\u306a\u3055\u3044": 700,
  "\u2581\u8a71": 701,
  "\u2581money": 702,
  "\u2581\u7269": 703,
  "\u5f8c": 704,
  "\u2581night": 705,
  "\u2581New": 706,
  "\u2581both": 707,
  "\u2581\u4fe1\u4ef0": 708,
  "\u2581mind": 709,
  "\u2581different": 710,
  "\u2581among": 711,
  "\u3057\u306a\u3044": 712,
  "\u3055\u308c": 713,
  "\u308c\u3070": 714,
  "\u304f\u3060\u3055\u3044": 715,
  "\u3053\u3068\u304c": 716,
  "\u2581few": 717,
  "\u2581\u4ed5\u4e8b": 718,
  "\u2581\u6765": 719,
  "\u30a4": 720,
  "\u2581\u8a00\u3044": 721,
  "\u2581\u95a2\u3059\u308b": 722,
  "\u2581went": 723,
  "\u2581\u3068\u3063": 724,
  "\u2581Just": 725,
  "\u2581father": 726,
  "\u2581fact": 727,
  "\u2581set": 728,
  "\u3060\u3088": 729,
  "\u2581\u6559\u3048": 730,
  "_": 731,
  "\u2581At": 732,
  "\u2581\u610f\u5473": 733,
  "\u2581able": 734,
  "\u2581\u5144\u5f1f": 735,
  "th": 736,
  "\u2581\u3068\u304d": 737,
  "\u2581Where": 738,
  "\u2581\u56fd": 739,
  "\u2581together": 740,
  "\u3059": 741,
  "\u2581himself": 742,
  "\u2581\u305d\u3053": 743,
  "\u2581\u8a18\u4e8b": 744,
  "\u2581\u3042\u3042": 745,
  "\u2581\u5f97": 746,
  "\u3066\u3044": 747,
  "\u2581*": 748,
  "\u2581took": 749,
  "\u2581nothing": 750,
  "\u258122": 751,
  "\u2581Can": 752,
  "\u2581\u5bfe\u3057": 753,
  "\u2581often": 754,
  "al": 755,
  "\u2581\u65b0\u3057\u3044": 756,
  "),": 757,
  "\u2581\u3067\u3059\u304b\u3089": 758,
  "\u2581\u601d\u3044": 759,
  "\u2581\u4f1a\u8846": 760,
  "\u2581\u78ba\u304b": 761,
  "\u6301": 762,
  "\u2581!": 763,
  "\u2581given": 764,
  "\u2581\u3046\u3061": 765,
  "\u2581\u4e16": 766,
  "\u2581lot": 767,
  "\u2581\u547d": 768,
  "\u2581\u3060\u304c": 769,
  "\u2581read": 770,
  "\u2581\u5927\u304d\u306a": 771,
  "\u2581\u51fa": 772,
  "\u258119": 773,
  "\u2581\u8ab0": 774,
  "\u2581next": 775,
  "\u2581Some": 776,
  "\u2581\u6240": 777,
  "\u2581word": 778,
  "\u2581power": 779,
  "\u2581though": 780,
  "\u3067\u304d\u308b": 781,
  "\u2581\u77e5\u3063": 782,
  "/": 783,
  "A": 784,
  "\u2581study": 785,
  "\u2581dead": 786,
  "\u307f": 787,
  "\u2581\u306a\u3055\u3044": 788,
  "\u2581shall": 789,
  "\u2581\u793a\u3057": 790,
  "\u2581hand": 791,
  "\u2581wife": 792,
  "\u3067\u3057\u3087": 793,
  "\u6642\u9593": 794,
  "\u2581\u3053\u308c\u3089": 795,
  "\u2581wrong": 796,
  "\u5927": 797,
  "\u307e\u305f": 798,
  "\u2581\u3042\u308c": 799,
  "\u2581mother": 800,
  "\u2581\u3042\u306e": 801,
  "\u2581understand": 802,
  "\u2581best": 803,
  "\u2581\u30e8\u30cf\u30cd": 804,
  "\u2581someone": 805,
  "\u2581important": 806,
  "\u2581system": 807,
  "\u6765": 808,
  "\u3051\u3069": 809,
  "\u2581hope": 810,
  "\u2581themselves": 811,
  "\u2581\u30de\u30bf\u30a4": 812,
  "\u2581problem": 813,
  "\u2581blood": 814,
  "\u2581okay": 815,
  "\u304a": 816,
  "\u8a00\u3063": 817,
  "c": 818,
  "\u2581congregation": 819,
  "\u2581having": 820,
  "\u2581\u6700\u521d": 821,
  "\u2581since": 822,
  "\u2581real": 823,
  "\u2581\u7d50\u679c": 824,
  "\u2581living": 825,
  "\u3068\u601d": 826,
  "\u2581\u6027": 827,
  "\u3060\u308d": 828,
  "\u2581\u3060\u304b\u3089": 829,
  "C": 830,
  "\u2581\u5929": 831,
  "\u2581Because": 832,
  "\u898b\u3066": 833,
  "\u2581bad": 834,
  "\u529b": 835,
  "\u2581later": 836,
  "\u30c8": 837,
  "\u2581\u8a00\u308f": 838,
  "\u2581matter": 839,
  "\u2581ask": 840,
  "\u2581However": 841,
  "\u2581\u56f3\u7248": 842,
  "\u3055\u305b": 843,
  "\u2581\u6559\u4f1a": 844,
  "\u2581coming": 845,
  "\u2581wanted": 846,
  "x": 847,
  "\u2581spiritual": 848,
  "\u2581saw": 849,
  "\u541b": 850,
  "\u2581until": 851,
  "\u2581far": 852,
  "i": 853,
  "\u2581\u307e\u3060": 854,
  "\u2581case": 855,
  "\u2581\u5b50\u3069\u3082": 856,
  "\u884c\u304f": 857,
  "\u2581gave": 858,
  "\u2581\u771f": 859,
  "\u2581bring": 860,
  "\u2581\u6c34": 861,
  "\u2581These": 862,
  "\u795e": 863,
  "\u2581school": 864,
  "\u258124": 865,
  "\u2581On": 866,
  "\u2581making": 867,
  "\u2581everything": 868,
  "\u2581Our": 869,
  "\u3055\u308c\u308b": 870,
  "\u2581\u970a\u7684": 871,
  "\u2581body": 872,
  "\u2581\u738b": 873,
  "\u2581\u307e\u3057\u3087": 874,
  "\u2581order": 875,
  "\u2581seen": 876,
  "\u2581care": 877,
  "\u2581point": 878,
  "\u2581yet": 879,
  "\u304c\u3042": 880,
  "\u2581during": 881,
  "\u3063\u3066\u3044": 882,
  "\u2581hard": 883,
  "\u2581child": 884,
  "es": 885,
  "\u8003\u3048": 886,
  "\u2581\u6b7b": 887,
  "\u2581woman": 888,
  "\u2581high": 889,
  "\u2581news": 890,
  "\u2581\u4e3b": 891,
  "\u5916": 892,
  "\u2581Mr": 893,
  "\u5f7c\u5973": 894,
  "\u2581son": 895,
  "\u2581\u5225": 896,
  "\u2581saying": 897,
  "\u2581whole": 898,
  "\u2581\u305b\u308b": 899,
  "\u308f\u305f\u3057": 900,
  "\u2581leave": 901,
  "\u2581\u975e\u5e38": 902,
  "\u2581already": 903,
  "\u305f\u3089": 904,
  "\u2581food": 905,
  "\u601d\u3046": 906,
  "\u2581city": 907,
  "\u2581enough": 908,
  "\u3089\u308c\u305f": 909,
  "\u524d": 910,
  "\u2581\u7d50\u5a5a": 911,
  "\u8a00\u3063\u3066": 912,
  "The": 913,
  "\u2581\u307f": 914,
  "\u5730": 915,
  "\u2581reason": 916,
  "\u2581\u3060\u308d": 917,
  "\u2581\u5171": 918,
  "\u2581\u3044\u3084": 919,
  "\u2581change": 920,
  "\u258121": 921,
  "\u2581fine": 922,
  "\u2581After": 923,
  "\u304d": 924,
  "\u2581\u540c": 925,
  "\u2581\u6301": 926,
  "\u3054\u81ea\u5206": 927,
  "\u2581whom": 928,
  "\u2581\u30a4\u30b9\u30e9\u30a8\u30eb": 929,
  "\u2581\u304b\u308c\u3089": 930,
  "\u2581yourself": 931,
  "\u3089\u306a\u3044": 932,
  "\u2581\u6c11": 933,
  "\u2581By": 934,
  "\u258130": 935,
  "\u2581\u59bb": 936,
  "\u2581Thank": 937,
  "\u2581asked": 938,
  "\u2581try": 939,
  "\u2581\u5973\u6027": 940,
  "\u2581ago": 941,
  "\u2581\u7236": 942,
  "\u2581\u7b54\u3048": 943,
  "\u2581Did": 944,
  "\u2581Picture": 945,
  "\u2581became": 946,
  "\u2581\u3055\u308c": 947,
  "\u2581women": 948,
  "\u300e": 949,
  "\u2581four": 950,
  "\u5ea6": 951,
  "\u3046": 952,
  "\u2581\u5b66": 953,
  "\u2581Get": 954,
  "\u2581\u9810\u8a00": 955,
  "\u540c\u3058": 956,
  "\u2581learn": 957,
  "\u2581\u5f71\u97ff": 958,
  "\u2581hear": 959,
  "\u7537": 960,
  "\u2581sorry": 961,
  "\u306b\u306a\u308a": 962,
  "\u2581\u65b9\u6cd5": 963,
  "\u2581O": 964,
  "\u2581turn": 965,
  "\u2581\u7406\u89e3": 966,
  "\u2581\u8a00\u3063": 967,
  "\u306b\u3064\u3044\u3066": 968,
  "\u2581Please": 969,
  "\u2581full": 970,
  "\u2581\u8aac\u660e": 971,
  "\u30eb": 972,
  "\u2581happened": 973,
  "\u2581cannot": 974,
  "\u7684\u306a": 975,
  "\u2581With": 976,
  "\u2581looking": 977,
  "\u2581please": 978,
  "\u3079\u304d": 979,
  "\u2581question": 980,
  "\u5fa1": 981,
  "\u2581\u3059\u3050": 982,
  "\u2581Look": 983,
  "\u2581start": 984,
  "\u306a\u3063\u305f": 985,
  "\u2581\u4ee5\u4e0a": 986,
  "\u2581war": 987,
  "\u2581P": 988,
  "\u2581face": 989,
  "\u2581Word": 990,
  "\u30a2": 991,
  "\u2581\u3088": 992,
  "\u2581United": 993,
  "\u2581\u30ed\u30fc\u30de": 994,
  "\u4f53": 995,
  "\u2581\u7406\u7531": 996,
  "\u2581percent": 997,
  "\u2581Go": 998,
  "l": 999,
  "\u2581\u304a\u308a": 1000,
  "\u2581\u3069\u3046\u3057\u3066": 1001,
  "\u8ab0": 1002,
  "\u2581\u6c17": 1003,
  "\u2581\u5b9f": 1004,
  "\u2581began": 1005,
  "\u2581getting": 1006,
  "\u2581s": 1007,
  "\u258125": 1008,
  "\u2581\u5b50": 1009,
  "\u2581\u7d4c\u9a13": 1010,
  "\u898b": 1011,
  "o": 1012,
  "\u2581view": 1013,
  "\u2581\u4f8b\u3048\u3070": 1014,
  "\u2581else": 1015,
  "\u2581heard": 1016,
  "\u2581\u660e\u3089\u304b": 1017,
  "\u2581car": 1018,
  "\u2581\u8eab": 1019,
  "\u2581won": 1020,
  "\u2581\u305d\u3093\u306a": 1021,
  "\u305f\u3081": 1022,
  "\u2581apostle": 1023,
  "\u30af": 1024,
  "\u2581once": 1025,
  "\u2581\u5e7e": 1026,
  "\u2581second": 1027,
  "\u2581small": 1028,
  "\u2581stop": 1029,
  "\u2581five": 1030,
  "\u305b": 1031,
  "4": 1032,
  "\u2581\u3055\u3048": 1033,
  "\u2581million": 1034,
  "\u3084\u308b": 1035,
  "\u2581light": 1036,
  "\u2581problems": 1037,
  "\u306b\u3057\u3066": 1038,
  "\u2581\u8a00\u3046": 1039,
  "\u4eca": 1040,
  "\u2581\u4e0b": 1041,
  "\u2581big": 1042,
  "\u2581peace": 1043,
  "\u524d\u306b": 1044,
  "\u2581remember": 1045,
  "\u7684": 1046,
  "\u2581T": 1047,
  "\u2581\u884c\u306a\u308f": 1048,
  "ta": 1049,
  "\u2581friends": 1050,
  "\u2581\u3042\u306a\u305f\u304c\u305f": 1051,
  "\u2581head": 1052,
  "\u2581knew": 1053,
  "\u2581future": 1054,
  "\u2581\u3059": 1055,
  "\u2581\u3042\u308b\u3044\u306f": 1056,
  "\u2581Of": 1057,
  "\u2581\u5d07\u62dd": 1058,
  "\u2581\u7f6a": 1059,
  "\u2581eyes": 1060,
  "\u2581trying": 1061,
  "\u2581lives": 1062,
  "\u2581\u884c\u306a\u3046": 1063,
  "\u2581\u73fe\u5728": 1064,
  "\u2581\u7528\u3044": 1065,
  "5": 1066,
  "\u2581\u9053": 1067,
  "\u2581K": 1068,
  "\u2581\u3060\u3063": 1069,
  "\u2581\u6301\u3064": 1070,
  "\u2581knowledge": 1071,
  "\u2581wrote": 1072,
  "\u2581sent": 1073,
  "\u3053\u3093\u306a": 1074,
  "\u2581answer": 1075,
  "\u2581makes": 1076,
  "\u2581brother": 1077,
  "\u2581possible": 1078,
  "\u2581worship": 1079,
  "\u306a\u3044\u3068": 1080,
  "6:": 1081,
  "\u2581\u3059\u308c": 1082,
  "\u2581\u4e16\u7d00": 1083,
  "\u2581\u3042\u308a\u304c\u3068\u3046": 1084,
  "\u30f3": 1085,
  "\u304d\u305f": 1086,
  "\u2581F": 1087,
  "\u4e00": 1088,
  "\u2581brought": 1089,
  "\u2581\u77e5\u3089": 1090,
  "\u2581\u7121": 1091,
  "\u2581soon": 1092,
  "\u2581known": 1093,
  "\u2581\u6b73": 1094,
  "\u2581idea": 1095,
  "\u2581\u771f\u7406": 1096,
  "\u2581\u5b8c\u5168": 1097,
  "\u2581\u4f53": 1098,
  "\u2581Here": 1099,
  "\u2581D": 1100,
  "\u6765\u305f": 1101,
  "ers": 1102,
  "\u2581free": 1103,
  "\u2581\u7c73\u56fd": 1104,
  "\u2581x": 1105,
  "\u2581Even": 1106,
  "\u2581kill": 1107,
  "\u2581century": 1108,
  "\u2581\u3082\u3063\u3068": 1109,
  "\u30c9": 1110,
  "\u2581\u91cd\u8981": 1111,
  "\u2581Israel": 1112,
  "\u2581\u8eca": 1113,
  "\u304b\u306a": 1114,
  "\u2581Or": 1115,
  "\u2581die": 1116,
  "\u2581\u6642\u4ee3": 1117,
  "\u2581\u6559": 1118,
  "\u2015": 1119,
  "\u3060\u306a": 1120,
  "\u2581\u25cf": 1121,
  "\u2581fear": 1122,
  "\u8eca": 1123,
  "\u2581\u696d": 1124,
  "\u2581\u65b0": 1125,
  "\u5fc3": 1126,
  "\u2581\u30ed": 1127,
  "\u3053\u3046": 1128,
  "N": 1129,
  "P": 1130,
  "\u2581\u6700\u3082": 1131,
  "\u4ed5\u4e8b": 1132,
  "\u2581Good": 1133,
  "\u2581\u5371\u967a": 1134,
  "\u2581religious": 1135,
  "\u2581\u5275\u9020": 1136,
  "\u2581along": 1137,
  "\u2581\u7948\u308a": 1138,
  "\u2581\u793a\u3059": 1139,
  "\u2581friend": 1140,
  "\u2581\u307b\u3068\u3093\u3069": 1141,
  "\u2581job": 1142,
  "\u2581\u652f\u914d": 1143,
  "\u2581World": 1144,
  "\u2581happy": 1145,
  "\u2581comes": 1146,
  "\u56de": 1147,
  "\u2581\u5c11\u306a\u304f": 1148,
  "\u5973": 1149,
  "\u2581\u25a1": 1150,
  "\u2581close": 1151,
  "\u2581talking": 1152,
  "\u2581\u76ee\u7684": 1153,
  "\u2581Peter": 1154,
  "\u6240": 1155,
  "\u2581move": 1156,
  "\u2581brothers": 1157,
  "or": 1158,
  "\u2581started": 1159,
  "\u2581working": 1160,
  "\u2581From": 1161,
  "\u805e": 1162,
  "\u2581room": 1163,
  "\u2581\u304b\u308c": 1164,
  "\u2581land": 1165,
  "\u2581service": 1166,
  "\u2581\u72b6\u614b": 1167,
  "\u2581M": 1168,
  "\u591c": 1169,
  "\u2581E": 1170,
  "\u3069\u3053": 1171,
  "\u30e0": 1172,
  "\u2581country": 1173,
  "\u2581open": 1174,
  "\u2581guy": 1175,
  "\u2581side": 1176,
  "\u2581\u308f\u304b": 1177,
  "\u2581\u307b\u304b": 1178,
  "\u2581result": 1179,
  "\u2581girl": 1180,
  "\u2581taking": 1181,
  "\u2581\u5834\u6240": 1182,
  "\u2581\u884c\u52d5": 1183,
  "\u2581\u7d04\u675f": 1184,
  "\u2581\u3061\u3087\u3063\u3068": 1185,
  "\u2581lost": 1186,
  "\u2581nor": 1187,
  "\u2581\u305f\u3060": 1188,
  "\u2581\u6c42\u3081": 1189,
  "\u6bba": 1190,
  "\u2581David": 1191,
  "\u2581\u9762": 1192,
  "\u2581\u5206\u304b": 1193,
  "\u2581Father": 1194,
  "\u2581alone": 1195,
  "\u3055\u308c\u3066": 1196,
  "\u2581\u4e8b": 1197,
  "\u2581certain": 1198,
  "\u2581\u5c11\u3057": 1199,
  "\u2581\u4e00\u7dd2": 1200,
  "\u2581\u5168": 1201,
  "\u2581taken": 1202,
  "\u2581\u30da\u30c6\u30ed": 1203,
  "\u2581\u4eba\u985e": 1204,
  "\u2581speak": 1205,
  "\u2581thinking": 1206,
  "\u2581however": 1207,
  "\u2581\u30b3\u30ea\u30f3\u30c8": 1208,
  "\u2581\u8a69\u7de8": 1209,
  "\u4e0b": 1210,
  "\u2581States": 1211,
  "\u7684\u306b": 1212,
  "\u2581\u65b9": 1213,
  "\u2581mankind": 1214,
  "\u6708": 1215,
  "\u2581killed": 1216,
  "\u2581persons": 1217,
  "\u30ba": 1218,
  "\u2581cause": 1219,
  "\u2581\u3042\u306a\u305f\u65b9": 1220,
  "\u2581information": 1221,
  "\u2581anyone": 1222,
  "\u9053": 1223,
  "\u2581husband": 1224,
  "\u2581un": 1225,
  "\u2581Many": 1226,
  "to": 1227,
  "\u2581present": 1228,
  "\u601d\u3044": 1229,
  "\u3082\u3046": 1230,
  "\u5834\u6240": 1231,
  "\u2581law": 1232,
  "\u2581nations": 1233,
  "\u826f\u3044": 1234,
  "\u258123": 1235,
  "\u2581&": 1236,
  "\u2581clear": 1237,
  "\u2581\u5730\u4e0a": 1238,
  "\u308f\u305f\u3057\u305f\u3061": 1239,
  "\u2581Yet": 1240,
  "\u2581ways": 1241,
  "\u308c\u305f": 1242,
  "\u2581U": 1243,
  "\u30bf": 1244,
  "\u4ffa": 1245,
  "\u3070": 1246,
  "\u2581stay": 1247,
  "\u2581\u5927\u4e08\u592b": 1248,
  "\u6027": 1249,
  "\u2581less": 1250,
  "\u2581\u4fe1\u3058": 1251,
  "\u2581age": 1252,
  "\u2581using": 1253,
  "\u307f\u305f\u3044": 1254,
  "\u2581\u5206": 1255,
  "\u2581\u95a2\u3057": 1256,
  "\u898b\u305f": 1257,
  "\u3048": 1258,
  "\u2581\u30e6\u30c0\u30e4": 1259,
  "\u2581\u601d": 1260,
  "D": 1261,
  "\u2581\u898b\u308b": 1262,
  "\u554f\u984c": 1263,
  "\u2581\u611f\u3058": 1264,
  "\u2581\u3082\u3061\u308d\u3093": 1265,
  "\u2581%": 1266,
  "\u2581morning": 1267,
  "\u2581article": 1268,
  "\u2581sense": 1269,
  "\u4e16\u754c": 1270,
  "B": 1271,
  "\u2581early": 1272,
  "\u3068\u304d": 1273,
  "\u2581\u884c\u304f": 1274,
  "\u3067\u3059\u304c": 1275,
  "\u2581\u3048\u3048": 1276,
  "\u2581J": 1277,
  "\u2581\u3068\u3066\u3082": 1278,
  "\u2581\u611f\u8b1d": 1279,
  "\u2581\u4e8b\u5b9f": 1280,
  "\u2581\u6d3b\u52d5": 1281,
  "\u3066\u3082": 1282,
  "\u2581King": 1283,
  "\u2581kingdom": 1284,
  "\u2581\u3044\u3064": 1285,
  "\u2581toward": 1286,
  "\u6c17": 1287,
  "\u2581large": 1288,
  "\u2581\u30a2\u30c3\u30e9": 1289,
  "ic": 1290,
  "\u2581questions": 1291,
  "\u2581needed": 1292,
  "\u2581\u75c5\u6c17": 1293,
  "\u9593": 1294,
  "\u306a\u3044\u304b": 1295,
  "\u2581\u805e": 1296,
  "\u2581half": 1297,
  "\u3005": 1298,
  "\u2581experience": 1299,
  "\u2581control": 1300,
  "\u2581\u982d": 1301,
  "\u2581Satan": 1302,
  "\u2581Dr": 1303,
  "\u3060\u304b\u3089": 1304,
  "\u2581\u5b66\u6821": 1305,
  "\u2581\u82e5\u3044": 1306,
  "\u2581hands": 1307,
  "\u2581religion": 1308,
  "\u2581\u5168\u304f": 1309,
  "\u2581\u559c\u3073": 1310,
  "\u2581\u5e73\u548c": 1311,
  "\u2581\u6ce8\u610f": 1312,
  "\u2581G": 1313,
  "\u2581\u751f\u304d": 1314,
  "\u306a\u3093": 1315,
  "\u2581\u540d": 1316,
  "\u2581government": 1317,
  "\u2581run": 1318,
  "\u2581An": 1319,
  "\u2581past": 1320,
  "\u2581\u5f97\u308b": 1321,
  "\u2581\u306a\u304c\u3089": 1322,
  "\u2581myself": 1323,
  "\u2581\u304f\u308c": 1324,
  "\u2581\u5341\u5206": 1325,
  "\u2581least": 1326,
  "\u2581\u3044\u3064\u3082": 1327,
  "\u2581\u653f\u5e9c": 1328,
  "\u2581died": 1329,
  "\u2581needs": 1330,
  "\u2581\u7279\u306b": 1331,
  "\u30c9\u30eb": 1332,
  "\u2581\u5ba3\u6559": 1333,
  "\u2581\u308f\u3051": 1334,
  "\u2581\u592b": 1335,
  "\u51fa\u6765": 1336,
  "\u2581\u3088\u3044": 1337,
  "\u2581\u30a2\u30e1\u30ea\u30ab": 1338,
  "\u2581felt": 1339,
  "\u3081": 1340,
  "\u2581guys": 1341,
  "\u2581R": 1342,
  "\u3068\u3053\u308d": 1343,
  "\u2581\u3054": 1344,
  "\u2581hours": 1345,
  "\u4e00\u7dd2": 1346,
  "\u4e0b\u3055\u3044": 1347,
  "\u2581\u5730\u7403": 1348,
  "\u2581\u307e\u305a": 1349,
  "\u2581Have": 1350,
  "\u2581100": 1351,
  "\u2581\u304a\u3051\u308b": 1352,
  "\u2581\u305d\u3053\u3067": 1353,
  "\u2581line": 1354,
  "\u2581six": 1355,
  "\u2581months": 1356,
  "\u2581purpose": 1357,
  "\u258140": 1358,
  "\u258150": 1359,
  "\u2581Be": 1360,
  "\u2581door": 1361,
  "\u2581\u540c\u69d8": 1362,
  "\u3046\u304b": 1363,
  "\u2581Those": 1364,
  "\u2581Thus": 1365,
  "\u2581\u6c17\u6301\u3061": 1366,
  "\u2581\u52aa\u529b": 1367,
  "\u304b\u3082\u3057": 1368,
  "\u2581group": 1369,
  "\u2581\u6700\u5f8c": 1370,
  "\u2581\u3069\u308c": 1371,
  "\u65b9\u6cd5": 1372,
  "T": 1373,
  "\u2581bit": 1374,
  "\u2581following": 1375,
  "\u2581knows": 1376,
  "\u2581\u5553\u793a": 1377,
  "\u2581\u5e0c\u671b": 1378,
  "\u2581whether": 1379,
  "\u2581serve": 1380,
  "able": 1381,
  "\u2581eat": 1382,
  "\u56fd": 1383,
  "\u2581almost": 1384,
  "\u3041": 1385,
  "\u3068\u8a00": 1386,
  "\u2581\u5b58\u5728": 1387,
  "\u2581\u8003\u3048\u308b": 1388,
  "\u308c\u306a\u3044": 1389,
  "\u597d\u304d": 1390,
  "\u66f8": 1391,
  "\u2581meet": 1392,
  "\u2581\u8cea\u554f": 1393,
  "\u2581boy": 1394,
  "O": 1395,
  "\u2581works": 1396,
  "\u2581isn": 1397,
  "\u2581personal": 1398,
  "\u4eba\u9593": 1399,
  "\u2581\u4ef2\u9593": 1400,
  "\u2581\u30a4\u30b6\u30e4": 1401,
  "\u2581marriage": 1402,
  "\u2581re": 1403,
  "\u2581situation": 1404,
  "\u2581learned": 1405,
  "\u306f\u305a": 1406,
  "\u2581form": 1407,
  "\u2581hell": 1408,
  "\u305a": 1409,
  "\u2581\u307f\u3093\u306a": 1410,
  "\u2581\u79d1\u5b66": 1411,
  "\u3057\u305f\u3044": 1412,
  "\u2581hold": 1413,
  "\u2581\u7d04": 1414,
  "man": 1415,
  "\u2581\u614b\u5ea6": 1416,
  "\u2581L": 1417,
  "\u2581\u3044\u3048": 1418,
  "\u2581\u52d5\u7269": 1419,
  "\u2581\u751f\u3058": 1420,
  "\u2581\u59cb\u3081": 1421,
  "\u2581follow": 1422,
  "\u2581Jerusalem": 1423,
  "\u306a\u3093\u3066": 1424,
  "\u2581\u72b6\u6cc1": 1425,
  "\u2581indeed": 1426,
  "\u2581\u4f1d\u9053": 1427,
  "\u30ca": 1428,
  "\u4f7f": 1429,
  "\u2581\u25c6": 1430,
  "\u2581Son": 1431,
  "\u2581\u305d\u308c\u3067\u3082": 1432,
  "\u5834\u5408": 1433,
  "\u3059\u308b\u3068": 1434,
  "\u2581share": 1435,
  "\u610f\u5473": 1436,
  "\u2581message": 1437,
  "\u2581self": 1438,
  "\u2581\u81ea\u7531": 1439,
  "\u3064\u306e": 1440,
  "\u3078\u306e": 1441,
  "\u2581value": 1442,
  "\u4eba\u304c": 1443,
  "\u30c0": 1444,
  "\u2581\u970a": 1445,
  "\u591a\u304f": 1446,
  "\u2581\u3058\u3083": 1447,
  "\u2581language": 1448,
  "\u3044\u306a\u3044": 1449,
  "\u540d": 1450,
  "\u7121\u3044": 1451,
  "\u2581\u3044\u3063": 1452,
  "\u2581\u53f7": 1453,
  "\u2581business": 1454,
  "\u2581rest": 1455,
  "\u2581everyone": 1456,
  "\u2581\u305f\u3089": 1457,
  "\u6c34": 1458,
  "\u2581\u6bcd": 1459,
  "\u2581easy": 1460,
  "\u2581\u3082\u3068": 1461,
  "\u2581\u30eb\u30ab": 1462,
  "\u2581\u82e5\u8005": 1463,
  "\u77e5\u3063": 1464,
  "\u2581gone": 1465,
  "\u2581Does": 1466,
  "\u2581Since": 1467,
  "\u2581giving": 1468,
  "\u307b\u3069": 1469,
  "\u4fe1\u3058": 1470,
  "\u2581return": 1471,
  "p": 1472,
  "\u25811,": 1473,
  "\u2581maybe": 1474,
  "\u2581goes": 1475,
  "\u2581\u5973": 1476,
  "\u2581history": 1477,
  "\u2581longer": 1478,
  "\u2581wait": 1479,
  "\u2581fire": 1480,
  "\u2581\u5f1f\u5b50": 1481,
  "\u901a\u308a": 1482,
  "\u2581Will": 1483,
  "\u2581\u5fe0\u5b9f": 1484,
  "\u2581\u5185": 1485,
  "\u4f1a": 1486,
  "6": 1487,
  "\u6765\u308b": 1488,
  "\u2581\u7537": 1489,
  "\u2581happen": 1490,
  "\u2581play": 1491,
  "\u2581evidence": 1492,
  "\u2581within": 1493,
  "\u2581rather": 1494,
  "\u2581quite": 1495,
  "\u2581trust": 1496,
  "\u2581behind": 1497,
  "\u2581stand": 1498,
  "\u2581health": 1499,
  "\u2581special": 1500,
  "\u2581\u304a\u3088\u3073": 1501,
  "\u2581feet": 1502,
  "\u2581\u884c\u306a\u3063": 1503,
  "\u2581H": 1504,
  "\u2581Matthew": 1505,
  "\u2581humans": 1506,
  "\u2581\u6b8b": 1507,
  "\u2581preaching": 1508,
  "\u2581faithful": 1509,
  "L": 1510,
  "\u30ea": 1511,
  "\u2581\u306d": 1512,
  "\u2581area": 1513,
  "\u2581itself": 1514,
  "\u3057\u308d": 1515,
  "\u2581state": 1516,
  "\u2581baby": 1517,
  "ness": 1518,
  "\u25814:": 1519,
  "\u4e07": 1520,
  "\u2581\u7d42\u308f\u308a": 1521,
  "\u2581near": 1522,
  "\u2581\u5f8b\u6cd5": 1523,
  "\u2581\u8a18": 1524,
  "\u2581\u56fd\u6c11": 1525,
  "\u2581\u7d44\u7e54": 1526,
  "\u2581\u53d7\u3051\u308b": 1527,
  "\u2581inside": 1528,
  "\u308a\u307e": 1529,
  "\u2581Right": 1530,
  "\u306f\u305d\u306e": 1531,
  "\u2581ready": 1532,
  "\u5143": 1533,
  "\u2581certainly": 1534,
  "\u2581York": 1535,
  "\u2581Maybe": 1536,
  "\u5f0f": 1537,
  "\u2581\u606f\u5b50": 1538,
  "\u2581holy": 1539,
  "\u2581\u5ea6": 1540,
  "\u2581\u95a2\u5fc3": 1541,
  "\u2581\u30b5\u30bf\u30f3": 1542,
  "\u2581\u6226\u4e89": 1543,
  "\u30e9": 1544,
  ",\"": 1545,
  "\u2581consider": 1546,
  "\u2581story": 1547,
  "\u2581\u30d8\u30d6\u30e9\u30a4": 1548,
  "\u2581\u30c6\u30e2\u30c6": 1549,
  "\u3068\u304b": 1550,
  "\u2581\u60aa\u3044": 1551,
  "\u2581pay": 1552,
  "\u96fb\u8a71": 1553,
  "\u4f5c": 1554,
  "\u2581\u72a0\u7272": 1555,
  "\u307e\u3060": 1556,
  "U": 1557,
  "\u2581\u8a8d\u3081": 1558,
  "\u2581\u793e\u4f1a": 1559,
  "\u3088\u304f": 1560,
  "\u25811:": 1561,
  "\u2581\u4e0e\u3048\u308b": 1562,
  "\u3088\u3046\u306a": 1563,
  "\u2581especially": 1564,
  "\u2581church": 1565,
  "\u2581\u547c\u3070": 1566,
  "\u2581\u6700\u8fd1": 1567,
  "\u2581disciples": 1568,
  "\u2581\u4ee5\u524d": 1569,
  "\u898b\u3064\u3051": 1570,
  "\u307e\u305b": 1571,
  "\u671f": 1572,
  "\u2581\u3042\u3089\u3086\u308b": 1573,
  "\u2581People": 1574,
  "\u2581N": 1575,
  "\u2581ten": 1576,
  "\u2581\u77e5\u8b58": 1577,
  "\u2581tried": 1578,
  "\u2581equal": 1579,
  "\u2581heaven": 1580,
  "\u2581building": 1581,
  "\u2581sir": 1582,
  "\u2581\u30d0\u30d7\u30c6\u30b9\u30de": 1583,
  "\u2581attention": 1584,
  "\u2581\u6c7a\u3057\u3066": 1585,
  "\u3082\u3057": 1586,
  "\u306b\u3088\u3063\u3066": 1587,
  "\u2581\u9577\u8001": 1588,
  "\u2581\u5dde": 1589,
  "\u2581support": 1590,
  "\u2581week": 1591,
  "\u2581\u3084\u3081": 1592,
  "\u2581\u8af8": 1593,
  "an": 1594,
  "\u2581\u6765\u308b": 1595,
  "\u2581continue": 1596,
  "\u2581\u7a2e": 1597,
  "\u2581\u7bb4\u8a00": 1598,
  "\u5f7c\u3089": 1599,
  "ation": 1600,
  "\u2581probably": 1601,
  "\u2581Like": 1602,
  "\u50d5": 1603,
  "\u2581ancient": 1604,
  "\u2581\u795d\u798f": 1605,
  "\u542b\u307e": 1606,
  "\u3063\u305f\u3089": 1607,
  "\u30d5": 1608,
  "\u2581Scriptures": 1609,
  "\u2581according": 1610,
  "\u2581\u307b\u3046": 1611,
  "\u2581\u8a8c": 1612,
  "\u2581\u5927\u4f1a": 1613,
  "\u5148": 1614,
  "\u7528": 1615,
  "\u2581\u884c\u306a\u3044": 1616,
  "\u2581lead": 1617,
  "\u3068\u3082": 1618,
  "\u2581sin": 1619,
  "on": 1620,
  "\u2581\u5e78\u798f": 1621,
  "\u2581\u751f": 1622,
  "\u2581\u500b\u4eba": 1623,
  "\u2581difficult": 1624,
  "\u305f\u304f": 1625,
  "\u2581\u51fa\u5e2d": 1626,
  "\u2581either": 1627,
  "\u2581\u7fa9": 1628,
  "\u2581king": 1629,
  "\u547d": 1630,
  "\u2581W": 1631,
  "\u2581\u30ab\u30c8\u30ea\u30c3\u30af": 1632,
  "\u2581\u76ca": 1633,
  "h": 1634,
  "M": 1635,
  "\u2581\u5909\u5316": 1636,
  "\u25815:": 1637,
  "\u2581\u7d19": 1638,
  "\u3064\u3082\u308a": 1639,
  "\u2581\u4f8b": 1640,
  "\u2581\u305a\u3063": 1641,
  "\u8a9e": 1642,
  "\u2581\u969b": 1643,
  "\u308b\u304b": 1644,
  "\u2581\u4e00\u90e8": 1645,
  "\u2581public": 1646,
  "\u2581strong": 1647,
  "\u304f\u308c\u308b": 1648,
  "\u70b9": 1649,
  "\u2581Tom": 1650,
  "\u258128": 1651,
  "\u2581members": 1652,
  "\u3053": 1653,
  "\u30ab": 1654,
  "\u2581write": 1655,
  "\u6559\u3048": 1656,
  "\u308c\u308b": 1657,
  "\u2581\u8a00\u3048": 1658,
  "\u2581wants": 1659,
  "\u2581involved": 1660,
  "\u2581\u7686": 1661,
  "\u3057\u304b": 1662,
  "\u2581created": 1663,
  "\u2581reading": 1664,
  "\u2581\u90fd\u5e02": 1665,
  "\u2581\u3042": 1666,
  "\u2581\u5c06\u6765": 1667,
  "\u2581air": 1668,
  "\u5c11\u3057": 1669,
  "\u2581countries": 1670,
  "\u2581\u5206\u304b\u308a": 1671,
  "\u2581\u6050\u308c": 1672,
  "\u2581de": 1673,
  "\u2581listen": 1674,
  "\u7dda": 1675,
  "\u2581\u81ea": 1676,
  "\u6b7b\u3093": 1677,
  "\u91d1": 1678,
  "\u2581\u5730\u57df": 1679,
  "\u6a5f": 1680,
  "\u2581\u96c6\u4f1a": 1681,
  "\u2581\u897f\u66a6": 1682,
  "en": 1683,
  "\u2581\u5c0f\u3055\u306a": 1684,
  "?\"": 1685,
  "it": 1686,
  "\u2581whatever": 1687,
  "\u2581beautiful": 1688,
  "\u2581Catholic": 1689,
  "\u2581account": 1690,
  "\u2581pretty": 1691,
  "\u2581See": 1692,
  "\u2581helped": 1693,
  "\u2581report": 1694,
  "\u2581servants": 1695,
  "\u2581\u308f\u308c": 1696,
  "\u2581\u81ea\u8eab": 1697,
  "\u2581\u6728": 1698,
  "\u306a\u3069": 1699,
  "\u5024": 1700,
  "\u2581turned": 1701,
  "\u2581minutes": 1702,
  "\u2581common": 1703,
  "\u2581deal": 1704,
  "\u2581\u884c\u304d": 1705,
  "\u2581uh": 1706,
  "\u8a00\u8449": 1707,
  "\u304f\u308b": 1708,
  "\u5316": 1709,
  "\u2581\u6b7b\u3093": 1710,
  "\u751f": 1711,
  "\u2581\u601d\u308f": 1712,
  "\u3059\u3050": 1713,
  "\u2581\u6b74\u53f2": 1714,
  "\u306b\u5165": 1715,
  "\u306a\u308b": 1716,
  "\u2581\u7cbe\u795e": 1717,
  "\u77e5\u3089": 1718,
  "\u2581walk": 1719,
  "\u2581respect": 1720,
  "\u2581\u5148": 1721,
  "\u52d5": 1722,
  "\u2581THE": 1723,
  "\u258126": 1724,
  "\u2581\u5974": 1725,
  "\u2581\u3082\u3063": 1726,
  "\u898b\u308b": 1727,
  "\u2581simply": 1728,
  "\u2581\u4fa1\u5024": 1729,
  "\u982d": 1730,
  "\u6c11": 1731,
  "\u2581\u8d77\u304d": 1732,
  "\u2581seems": 1733,
  "\u5165\u3063": 1734,
  "\u2581relationship": 1735,
  "\u2581\u8a33": 1736,
  "\u2581promise": 1737,
  "\u2581\u540d\u524d": 1738,
  "\u25816:": 1739,
  "\u611f\u3058": 1740,
  "\u2581\u7d9a\u3051": 1741,
  "\u2581gives": 1742,
  "\u79c1\u305f\u3061": 1743,
  "\u2581enjoy": 1744,
  "\u2581\u53ef\u80fd": 1745,
  "\u2581above": 1746,
  "\u2581Uh": 1747,
  "\u2581righteous": 1748,
  "\u2581kept": 1749,
  "\u2581couple": 1750,
  "\u2581\u6b63\u3057\u3044": 1751,
  "\u2581serious": 1752,
  "\u2581seem": 1753,
  "\u2581forth": 1754,
  "\u2581Moses": 1755,
  "\u2581position": 1756,
  "You": 1757,
  "\u2581nation": 1758,
  "\u95a2": 1759,
  "\u2581interest": 1760,
  "\u2581class": 1761,
  "\u2581loving": 1762,
  "\u2581\u305f\u3088\u308a": 1763,
  "\u2581m": 1764,
  "\u2581\u3055\u3042": 1765,
  "\u2581sound": 1766,
  "\u2581\u91d1": 1767,
  "\u2581\u3042\u3068": 1768,
  "\u70ba": 1769,
  "\u2581p": 1770,
  "\u2581\u8a3c\u62e0": 1771,
  "\u2581prayer": 1772,
  "8": 1773,
  "g": 1774,
  "\u6b7b": 1775,
  "\u2581desire": 1776,
  "\u2581\u53e3": 1777,
  "\u540d\u524d": 1778,
  "\u2581heavens": 1779,
  "\u2581Most": 1780,
  "\u5b50\u4f9b": 1781,
  "\u2581late": 1782,
  "\u304b\u3051": 1783,
  "7": 1784,
  "\u2581\u30c0\u30d3\u30c7": 1785,
  "\u5b66": 1786,
  "\u884c\u3063": 1787,
  "\u2581cut": 1788,
  "\u2581local": 1789,
  "\u2581thus": 1790,
  "\u4e00\u3064": 1791,
  "\u2581ourselves": 1792,
  "\u2581teaching": 1793,
  "\u3044\u3046": 1794,
  "\u3089\u3070": 1795,
  "\u2581soul": 1796,
  "\u2581save": 1797,
  "\u2581Would": 1798,
  "\u2581\u6bcd\u89aa": 1799,
  "\u4ee5\u4e0a": 1800,
  "\u95a2\u4fc2": 1801,
  "\u2581single": 1802,
  "F": 1803,
  "\u2581outside": 1804,
  "\u2581\u9053\u5fb3": 1805,
  "\u2581fellow": 1806,
  "\u2581ministry": 1807,
  "\u2581\u4f1d\u3048": 1808,
  "\u2581met": 1809,
  "\u3080": 1810,
  "\u30c7": 1811,
  "us": 1812,
  "\u2581shows": 1813,
  "\u2581\u653f\u6cbb": 1814,
  "\u2581miles": 1815,
  "\u2581states": 1816,
  "\u2581alive": 1817,
  "\u2581takes": 1818,
  "\u2581\u30a8\u30eb\u30b5\u30ec\u30e0": 1819,
  "\u2581i": 1820,
  "\u2581received": 1821,
  "\u304b\u3082": 1822,
  "\u59cb\u3081": 1823,
  "\u2581Take": 1824,
  "\u2581\u30a2\u30d5\u30ea\u30ab": 1825,
  "\u2581\u5f53\u6642": 1826,
  "\u2581\u611f\u60c5": 1827,
  "\u2581married": 1828,
  "\u2581English": 1829,
  "\u2581including": 1830,
  "\u5165\u308c": 1831,
  "\u2581\u77e5\u308b": 1832,
  "\u304c\u306a\u3044": 1833,
  "\u4e0e\u3048": 1834,
  "\u2581witnesses": 1835,
  "\u2581\u4eba\u751f": 1836,
  "\u3055\u305b\u308b": 1837,
  "\u2581Psalm": 1838,
  "\u5b98": 1839,
  "ting": 1840,
  "\u52a9\u3051": 1841,
  "\u2581act": 1842,
  "\u304b\u3063": 1843,
  "\u2581According": 1844,
  "\u2581\u3042\u3093\u305f": 1845,
  "\u2581fight": 1846,
  "\u2581\u8ab0\u304b": 1847,
  "\u2581\u884c\u70ba": 1848,
  "\u2581f": 1849,
  "\u2581\u666e\u901a": 1850,
  "f": 1851,
  "0": 1852,
  "\u2581joy": 1853,
  "\u30ed": 1854,
  "\u2581Him": 1855,
  "\u2581short": 1856,
  "\u2581\u8cac\u4efb": 1857,
  "\u2581While": 1858,
  "\u2581\u4f4f\u3080": 1859,
  "\u2581office": 1860,
  "\u2581American": 1861,
  "\u2581sister": 1862,
  "\u2581\u601d\u3046": 1863,
  "\u2581perfect": 1864,
  "\u2581\u304f\u3060\u3055\u308b": 1865,
  "\u2581greater": 1866,
  "\u2581looks": 1867,
  "\u308f\u3051": 1868,
  "\u89e3": 1869,
  "\u2581\u533b\u5e2b": 1870,
  "\u2581Isaiah": 1871,
  "\u2581fucking": 1872,
  "\u2581seven": 1873,
  "\u8eab": 1874,
  "k": 1875,
  "\u2581\u5f93": 1876,
  "\u2581entire": 1877,
  "\u2581further": 1878,
  "\u2581\u69d8\u3005": 1879,
  "\u2581meeting": 1880,
  "\u5168\u3066": 1881,
  "\u2581\u60aa": 1882,
  "\u2581\u65e5\u672c": 1883,
  "\u6cd5": 1884,
  "\u2581\u5065\u5eb7": 1885,
  "\u2581\u3088\u308c": 1886,
  "\u884c\u304d": 1887,
  "\u2581wisdom": 1888,
  "G": 1889,
  "\u2581\u5a18": 1890,
  "\u2581\u5916": 1891,
  "\u30de\u30f3": 1892,
  "\u3053\u305d": 1893,
  "\u2581\u901a\u3057": 1894,
  "\u2581police": 1895,
  "\u3082\u306a\u3044": 1896,
  "\u2581\u3053\u3068\u3070": 1897,
  "\u2581exactly": 1898,
  "\u2581front": 1899,
  "\u2581magazine": 1900,
  "\u2581Their": 1901,
  "\u2581watch": 1902,
  "\u3064\u3051": 1903,
  "\u9762": 1904,
  "\u2581\u8840": 1905,
  "\u2581counsel": 1906,
  "\u2581\u5b89\u5168": 1907,
  "\u2581\u52a9\u8a00": 1908,
  "\u2581\u52e7\u3081": 1909,
  "\u2581nice": 1910,
  "\u2581Today": 1911,
  "\u2581\u78ba\u4fe1": 1912,
  "\u258133": 1913,
  "\u2581\u4e00\u822c": 1914,
  "\u5ff5": 1915,
  "ion": 1916,
  "\u30d5\u30a1\u30a4\u30eb": 1917,
  "\u623b": 1918,
  "\u305f\u304b": 1919,
  "\u2581whose": 1920,
  "\u2581\u73fe\u4ee3": 1921,
  "\u2581born": 1922,
  "u": 1923,
  "\u306e\u3082\u306e": 1924,
  "\u2581\u60c5\u5831": 1925,
  "\u2581\u4fe1\u983c": 1926,
  "\u2581sea": 1927,
  "\u7b11": 1928,
  "\u2581avoid": 1929,
  "\u2581rule": 1930,
  "\u2581modern": 1931,
  "\u2581therefore": 1932,
  "\u2581\u6c38\u9060": 1933,
  "\u2581Jews": 1934,
  "\u3060\u304c": 1935,
  "\u2581\u4f1a": 1936,
  "\u3059\u3079\u3066": 1937,
  "\u2581Me": 1938,
  "\u2581\u3068\u304a\u308a": 1939,
  "\u2581phone": 1940,
  "\u2581\u884c": 1941,
  "\u2581\u56de": 1942,
  "\u2581\u4e09": 1943,
  "\u2581\u898b\u65b9": 1944,
  "\u2581field": 1945,
  "\u5974": 1946,
  "\u2581Greek": 1947,
  "\u2581Creator": 1948,
  "\u2581perhaps": 1949,
  "\u2581\u6bd4\u8f03": 1950,
  "\u2581\u3044\u3044\u3048": 1951,
  "\u2581material": 1952,
  "\u2581similar": 1953,
  "\u2581sort": 1954,
  "\u2581\u6d77": 1955,
  "\u2581\u96fb\u8a71": 1956,
  "\u2581town": 1957,
  "\u2581provide": 1958,
  "\u2581safe": 1959,
  "\u304a\u524d": 1960,
  "\u2581\u5bb6\u5ead": 1961,
  "\u306a\u3051\u308c\u3070": 1962,
  "\u6b21": 1963,
  "\u2581per": 1964,
  "\u2581sleep": 1965,
  "\u2581heavenly": 1966,
  "\u2581\u5168\u4f53": 1967,
  "\u2581y": 1968,
  "\u2581moved": 1969,
  "\u2581\u3057\u307e\u3044": 1970,
  "\u2581\u5fa9\u6d3b": 1971,
  "\u2581\u5831\u544a": 1972,
  "\u2581written": 1973,
  "\u2581likely": 1974,
  "\u2581doctor": 1975,
  "\u2581\u30c9\u30a4\u30c4": 1976,
  "\u5171": 1977,
  "\u6709": 1978,
  "\u2581hour": 1979,
  "ame": 1980,
  "\u5c45": 1981,
  "\u2581company": 1982,
  "\u2581Such": 1983,
  "\u3068\u3066\u3082": 1984,
  "\u2581\u304a\u91d1": 1985,
  "\u2581sun": 1986,
  "\u3059\u308b\u3053\u3068": 1987,
  "\u2581\u611f": 1988,
  "\u2581\u6614": 1989,
  "\u3059\u308b\u8005": 1990,
  "\u7121": 1991,
  "\u2581\u7279\u5225": 1992,
  "\u2581\u3059\u3067\u306b": 1993,
  "\u2581evil": 1994,
  "\u6b32\u3057\u3044": 1995,
  "\u2581\u624b\u7d19": 1996,
  "\u30bd\u30f3": 1997,
  "\u2581music": 1998,
  "\u30de": 1999,
  "\u5185": 2000,
  "\u2581clean": 2001,
  "<": 2002,
  "\u6b8b": 2003,
  "\u898b\u3048": 2004,
  "\u2581matters": 2005,
  "\u2581send": 2006,
  "\u30a8\u30db\u30d0": 2007,
  "\u611b": 2008,
  "\u2581test": 2009,
  "\u305d\u3053": 2010,
  "\u2581showed": 2011,
  "\u2581effect": 2012,
  "\u2581Great": 2013,
  "\u2581reports": 2014,
  "\u4fe1\u4ef0": 2015,
  "\u52d9": 2016,
  "\u2581\u30ae\u30ea\u30b7\u30e3": 2017,
  "\u2581daughter": 2018,
  "el": 2019,
  "\u2581\u30ad\u30ed": 2020,
  "\u2581several": 2021,
  "Laughter": 2022,
  "\u2581meetings": 2023,
  "\u2581moment": 2024,
  "\u2581\u96e2\u308c": 2025,
  "\u2581\u8b66\u5bdf": 2026,
  "\u2581\u8b66\u544a": 2027,
  "\u2581break": 2028,
  "\u69d8": 2029,
  "\u2581tree": 2030,
  "\u2581changed": 2031,
  "\u2581\u3042\u308d": 2032,
  "\u2581wicked": 2033,
  "\u2581based": 2034,
  "\u258131": 2035,
  "\u2581%1": 2036,
  "\u2581held": 2037,
  "\u258127": 2038,
  "\u2581taught": 2039,
  "\u3059\u308c\u3070": 2040,
  "\u2581top": 2041,
  "\u901f": 2042,
  "\u2581\u8a18\u9332": 2043,
  "\u2581\u7269\u8cea": 2044,
  "\u5929": 2045,
  "\u2581students": 2046,
  "\u2581\u9055\u3044": 2047,
  "\u2581\u81ea\u7136": 2048,
  "\u3059\u304b": 2049,
  "\u2581truly": 2050,
  "K": 2051,
  "\u2581false": 2052,
  "\u2581sign": 2053,
  "\u2581shit": 2054,
  "\u2581drink": 2055,
  "\u2581\u30c8\u30e0": 2056,
  "\u2581natural": 2057,
  "\u2581poor": 2058,
  "\u2581books": 2059,
  "\u2581simple": 2060,
  "\u2581receive": 2061,
  "\u2581\u6559\u80b2": 2062,
  "\u2581Although": 2063,
  "\u2581list": 2064,
  "\u2581\u5c71": 2065,
  "\u2581Luke": 2066,
  "\u2581animals": 2067,
  "\u30ea\u30fc": 2068,
  "\u2581hurt": 2069,
  "\u2581hearts": 2070,
  "\u2581\u8a08\u753b": 2071,
  "\u2581\u9055\u3046": 2072,
  "\u2581\u539f\u56e0": 2073,
  "\u3061": 2074,
  "\u2581\u4f53\u5236": 2075,
  "\u2581Day": 2076,
  "\u2581\u7537\u6027": 2077,
  "\u2581\u611b\u3059\u308b": 2078,
  "\u2581chance": 2079,
  "R": 2080,
  "\u2581Mary": 2081,
  "\u2581Adam": 2082,
  "\u2581witness": 2083,
  "\u2581Wait": 2084,
  "\u2581guess": 2085,
  "\u5370": 2086,
  "\u2581\u4e00\u65b9": 2087,
  "\u7740": 2088,
  "\u2581game": 2089,
  "\u2581\u8abf\u67fb": 2090,
  "\u2581wish": 2091,
  "\u2581\u3057\u307e\u3046": 2092,
  "\u2581sometimes": 2093,
  "and": 2094,
  "\u2581\u3055\u305b": 2095,
  "\u2581\u5149": 2096,
  "\u305d": 2097,
  "\u2581deep": 2098,
  "\u9001": 2099,
  "\u2581\u4e8c\u3064": 2100,
  "\u2581doubt": 2101,
  "\u2581letter": 2102,
  "\u4f7f\u7528": 2103,
  "\u65b0\u3057\u3044": 2104,
  "\u2581thousands": 2105,
  "\u2581\u8aad\u3080": 2106,
  "\u4e57": 2107,
  "\u2581\u53d7\u3051\u5165\u308c": 2108,
  "\u2581\u898b\u3048": 2109,
  "\u2581\u6025": 2110,
  "\u2581program": 2111,
  "\u2581force": 2112,
  "em": 2113,
  "\u30aa": 2114,
  "\u2581First": 2115,
  "\u2581function": 2116,
  "\u4e16": 2117,
  "\u2581\u5099\u3048": 2118,
  "\u2581\u77e5\u308a": 2119,
  "\u2581Church": 2120,
  "\u2581conduct": 2121,
  "10": 2122,
  "\u2581Africa": 2123,
  "\u2581physical": 2124,
  "\u2581lived": 2125,
  "\u2581plus": 2126,
  "\u2581\u5e02": 2127,
  "\u51e1\u3066": 2128,
  "\u2581disease": 2129,
  "\u2581\u58f0": 2130,
  "\u2581gets": 2131,
  "\u2581\u53cd\u5bfe": 2132,
  "\u2581Hello": 2133,
  "\u2581\u4e00\u81f4": 2134,
  "is": 2135,
  "\u2581yeah": 2136,
  "\u5f85\u3063": 2137,
  "\u2581ground": 2138,
  "\u2581type": 2139,
  "\u2581\u4e3b\u7fa9": 2140,
  "\u2581places": 2141,
  "\u60aa\u3044": 2142,
  "\u2581c": 2143,
  "&": 2144,
  "\u2581period": 2145,
  "\u9055\u3046": 2146,
  "\u2581plan": 2147,
  "\u706b": 2148,
  "ity": 2149,
  "\u2581\u8272": 2150,
  "\u2581political": 2151,
  "\u2581\u5165\u308c": 2152,
  "Y": 2153,
  "\u2581feeling": 2154,
  "\u2581\u3088\u3057": 2155,
  "\u2581May": 2156,
  "\u2581decided": 2157,
  "\u2581\u3057\u304b": 2158,
  "\u2581feelings": 2159,
  "\u2581\u3084\u304c\u3066": 2160,
  "\u2581\u7236\u89aa": 2161,
  "\u2581\u30e4\u30b3\u30d6": 2162,
  "We": 2163,
  "\u306e\u3067\u3042\u308b": 2164,
  "\u3053\u3061\u3089": 2165,
  "\u4e00\u4eba": 2166,
  "\u2581elders": 2167,
  "\u2581\u62b1": 2168,
  "\u2581speaking": 2169,
  "\u76f4": 2170,
  "\u2581Indeed": 2171,
  "\u2581month": 2172,
  "\u2581looked": 2173,
  "\u258129": 2174,
  "\u2581usually": 2175,
  "\u2581buy": 2176,
  "\u2581wise": 2177,
  "\u2581worked": 2178,
  "\u2581\u6c7a\u5b9a": 2179,
  "\u2581brain": 2180,
  "\u2581\u7acb\u5834": 2181,
  "\u2581teach": 2182,
  "\u2581\u3059\u306a\u308f\u3061": 2183,
  "ur": 2184,
  "\u696d": 2185,
  "\u2581pain": 2186,
  "\u2581\u307e": 2187,
  "\u8a71\u3092": 2188,
  "\u2581\u304b\u3051": 2189,
  "\u2581haven": 2190,
  "\u2581data": 2191,
  "\u5b9f": 2192,
  "\u2581\u304b\u306a\u308a": 2193,
  "H": 2194,
  "\u2581Watchtower": 2195,
  "\u2581\u8a2a\u554f": 2196,
  "\u2581yes": 2197,
  "\u2581issue": 2198,
  "\u2581\u3054\u89a7": 2199,
  "\u2581\u5fc3\u914d": 2200,
  "\u2581\u53e4\u4ee3": 2201,
  "\u2581\u5b87\u5b99": 2202,
  "\u767a": 2203,
  "\u3044\u3051": 2204,
  "z": 2205,
  "\u308f\u3088": 2206,
  "\u2581Revelation": 2207,
  "\u2581\u611b\u3057": 2208,
  "\u2581\u8a00\u8a9e": 2209,
  "\u2581happiness": 2210,
  "\u2581Re": 2211,
  "le": 2212,
  "\u3061\u3083": 2213,
  "\u2581\u8aad": 2214,
  "\u2581\u59c9\u59b9": 2215,
  "\u5206\u304b": 2216,
  "ent": 2217,
  "\u2581\u5fc5\u305a": 2218,
  "\u2581\u899a\u3048": 2219,
  "\u258132": 2220,
  "\u2581organization": 2221,
  "\u304f\u3089\u3044": 2222,
  "\u2581\u793a\u3055": 2223,
  "\u7b54\u3048": 2224,
  "\u2581\u5927\u5207": 2225,
  "\u2581wanna": 2226,
  "\u3093\u3058\u3083": 2227,
  "\u2581Two": 2228,
  "\u2581action": 2229,
  "\u2581beginning": 2230,
  "\u25810": 2231,
  "\u2581text": 2232,
  "\u2581\u89e3\u6c7a": 2233,
  "\u306e\u3088\u3046\u306a": 2234,
  "\u2581thank": 2235,
  "\u2581\u5f85\u3063": 2236,
  "\u3044\u3064": 2237,
  "\u2581ahead": 2238,
  "\u2581benefit": 2239,
  "\u305c": 2240,
  "\u2581third": 2241,
  "\u2581security": 2242,
  "\u306a\u308a": 2243,
  "It": 2244,
  "\u2581due": 2245,
  "\u2581\u6700": 2246,
  "\u5f62": 2247,
  "\u2581\u5fd8\u308c": 2248,
  "\u4ee5\u5916": 2249,
  "\u5f97": 2250,
  "\u2581Japan": 2251,
  "\u2581instead": 2252,
  "\u2581accept": 2253,
  "\u2581ye": 2254,
  "\u2581build": 2255,
  "\u2581eye": 2256,
  "\u2581picture": 2257,
  "\u30d6": 2258,
  "\u2581Another": 2259,
  "\u2581Life": 2260,
  "\u306b\u3068\u3063\u3066": 2261,
  "\u2581\u308f\u305a\u304b": 2262,
  "\u2581\u4f7f": 2263,
  "\u2581\u77e5\u6075": 2264,
  "\u2581fall": 2265,
  "\u7acb\u3063": 2266,
  "\u2581finally": 2267,
  "\u2581happens": 2268,
  "\u258160": 2269,
  "\u2581\u8033": 2270,
  "at": 2271,
  "\u2581Dur": 2272,
  "\u2581\u8239": 2273,
  "ist": 2274,
  "\u2581completely": 2275,
  "\u30c7\u30a3": 2276,
  "\u2581\u82f1\u56fd": 2277,
  "\u2581running": 2278,
  "\u2581\u6307\u5c0e": 2279,
  "\u2581energy": 2280,
  "\u2581attitude": 2281,
  "\u2581built": 2282,
  "\u308b\u3053\u3068\u306f": 2283,
  "\u2581baptized": 2284,
  "\u2581\u4fdd\u8b77": 2285,
  "\u2581\u591a\u3044": 2286,
  "\u81ea\u8eab": 2287,
  "\u2581Thanks": 2288,
  "\u2581\u751f\u307e": 2289,
  "\u2581\u306f\u3063\u304d\u308a": 2290,
  "\u2581meaning": 2291,
  "\u2581\u5186": 2292,
  "\u2581afraid": 2293,
  "\u2581forever": 2294,
  "\u2581space": 2295,
  "\u2581loved": 2296,
  "\u2581\u539f\u5247": 2297,
  "\u2581200": 2298,
  "\u2581\u3084\u3063": 2299,
  "\u2581\u591c": 2300,
  "\u2581\u30e2\u30fc\u30bb": 2301,
  "\u2581check": 2302,
  "\u2581\u3057\u305f\u304c\u3063\u3066": 2303,
  "\u2581parts": 2304,
  "\u307e\u3057": 2305,
  "\u2581\u65e9\u304f": 2306,
  "\u8272": 2307,
  "\u2581\u5e38": 2308,
  "\u2581\u5354\u4f1a": 2309,
  "\u3063\u3066\u3082": 2310,
  "\u2581suffering": 2311,
  "\u5834": 2312,
  "\u2581\u54e1": 2313,
  "\u3051": 2314,
  "\u2581\u3053": 2315,
  "\u2581available": 2316,
  "\u2581telling": 2317,
  "\u2581War": 2318,
  "\u53e3": 2319,
  "\u6b73": 2320,
  "\u2581\u90e8\u5206": 2321,
  "\u2581stuff": 2322,
  "\u2581white": 2323,
  "\u2581\u3046\u3093": 2324,
  "\u2581visit": 2325,
  "\u2581\u8a71\u3059": 2326,
  "\u2581\u6a5f\u4f1a": 2327,
  "\u2581\u3059\u3070\u3089\u3057\u3044": 2328,
  "\u2581fast": 2329,
  "\u5973\u6027": 2330,
  "\u2581James": 2331,
  "\u2581\u5275\u4e16\u8a18": 2332,
  "\u2581trouble": 2333,
  "\u2581remain": 2334,
  "\u2581\u81ea\u3089": 2335,
  "\u2581\u8a71\u3057": 2336,
  "\u2581\u52a0\u3048": 2337,
  "\u2581Man": 2338,
  "\u2581Society": 2339,
  "as": 2340,
  "\u2581except": 2341,
  "\u2581Say": 2342,
  "\u2581Abraham": 2343,
  "\u2581Hi": 2344,
  "\u2581reach": 2345,
  "\u2581grow": 2346,
  "\u4f7f\u5f92": 2347,
  "\u2581\u8a00\u3063\u3066": 2348,
  "\u2581\u958b\u62d3": 2349,
  "\u2581\u8fd1\u304f": 2350,
  "\u2581Israelites": 2351,
  "\u30b5": 2352,
  "\u2581\u8abf\u3079": 2353,
  "\u2581authority": 2354,
  "\u2581\u60a3\u8005": 2355,
  "\u2581understanding": 2356,
  "\u2581source": 2357,
  "ry": 2358,
  "\u25814.": 2359,
  "9": 2360,
  "\u2581\u904e\u53bb": 2361,
  "\u2581w": 2362,
  "\u4e0d": 2363,
  "\u5e30": 2364,
  "\u2581\u305f\u304f\u3055\u3093": 2365,
  "\u3068\u3057\u305f": 2366,
  "\u2581fully": 2367,
  "\u76ee\u3056\u3081\u3088": 2368,
  "\u2581America": 2369,
  "\u30b3": 2370,
  "\u2581Really": 2371,
  "ie": 2372,
  "\u30d0": 2373,
  "\u2581\u53cb\u4eba": 2374,
  "\u2581\u521d\u3081\u3066": 2375,
  "\u2581\u6cbb\u7642": 2376,
  "\u2581Roman": 2377,
  "\u2581record": 2378,
  "\u2581\u6b63\u78ba": 2379,
  "\u2581Tell": 2380,
  "\u2581\u5974\u96b7": 2381,
  "\u2581necessary": 2382,
  "\u300f.": 2383,
  "\u25813,": 2384,
  "\u2581file": 2385,
  "\u2581\u9ad8\u3044": 2386,
  "\u2581key": 2387,
  "\u2581divine": 2388,
  "\u2581\u9b42": 2389,
  "\u751f\u304d": 2390,
  "\u2581X": 2391,
  "\u2581realize": 2392,
  "\u2581\u72af\u7f6a": 2393,
  "\u2581across": 2394,
  "\u2581\u771f\u5b9f": 2395,
  "\u9023\u308c": 2396,
  "\u2581Watch": 2397,
  "\u2581\u306f\u305a": 2398,
  "\u2581complete": 2399,
  "\u2581older": 2400,
  "\u305f\u308f": 2401,
  "\u2581interesting": 2402,
  "\u2581wonder": 2403,
  "\u2581black": 2404,
  "\u3057\u305f\u304c": 2405,
  "\u61f2\u7f70": 2406,
  "\u2581\u3086\u304f": 2407,
  "\u2581interested": 2408,
  "ment": 2409,
  "\u2581\u30a2": 2410,
  "\u2581\u5f37\u3044": 2411,
  "\u307f\u307e": 2412,
  "\u90e8\u5206": 2413,
  "\u2581red": 2414,
  "\u2581birth": 2415,
  "\u2581Acts": 2416,
  "\u2581\u4e00\u5ea6": 2417,
  "\u2581\u3053\u3063": 2418,
  "\u2581choice": 2419,
  "\u2581learning": 2420,
  "\u7406\u7531": 2421,
  "\u2581surely": 2422,
  "\u5909": 2423,
  "\u2581hit": 2424,
  "\u2581Stop": 2425,
  "\u9854": 2426,
  "\u2581\u518d\u3073": 2427,
  "\u2581prove": 2428,
  "\u3066\u306f\u306a\u3089\u306a\u3044": 2429,
  "\u5bb6\u65cf": 2430,
  "\u2581\u6a5f": 2431,
  "\u2581Proverbs": 2432,
  "\u30b6": 2433,
  "\u2581strength": 2434,
  "\u2581weeks": 2435,
  "\u308b\u3053\u3068\u3092": 2436,
  "\u2581\u5927\u5b66": 2437,
  "\u2581millions": 2438,
  "\u2581\u3080\u3057\u308d": 2439,
  "\u30c4": 2440,
  "\u2581Keep": 2441,
  "\u8d77\u304d": 2442,
  "\u53d7\u3051": 2443,
  "\u25812.": 2444,
  "\u2581principles": 2445,
  "\u2581protect": 2446,
  "\u2581\u5c0f": 2447,
  "\u2581sick": 2448,
  "\u2581\u3069": 2449,
  "\u2581various": 2450,
  "\u2581Sorry": 2451,
  "\u2581\u30d5\u30e9\u30f3\u30b9": 2452,
  "\u2581\u304b\u6708": 2453,
  "\u5408": 2454,
  "\u2581social": 2455,
  "\u2581voice": 2456,
  "\u2581\u89aa\u5207": 2457,
  "\u2581caused": 2458,
  "\u4f8b": 2459,
  "\u2581neither": 2460,
  "\u2581\u30cb\u30e5\u30fc\u30e8\u30fc\u30af": 2461,
  "\u2581\u6cd5": 2462,
  "\u3060\u306d": 2463,
  "\u2581Only": 2464,
  "\u7236": 2465,
  "\u2581step": 2466,
  "\u9078\u629e": 2467,
  "\u2581sons": 2468,
  "\u2581\u6bba": 2469,
  "\u90e8\u5c4b": 2470,
  "\u91cf": 2471,
  "\u2581changes": 2472,
  "\u2581tomorrow": 2473,
  "w": 2474,
  "\u2581lose": 2475,
  "\u2581figure": 2476,
  "\u8981": 2477,
  "\u2581OK": 2478,
  "\u2581Her": 2479,
  "\u2581\u5211": 2480,
  "\u30c1": 2481,
  "\u2581provided": 2482,
  "\u30ec": 2483,
  "\u30cb": 2484,
  "\u307e\u3063": 2485,
  "@": 2486,
  "\u2581forward": 2487,
  "\u2581opportunity": 2488,
  "\u2581V": 2489,
  "\u8db3": 2490,
  "\u2581cases": 2491,
  "\u2581waiting": 2492,
  "\u2581\u304f\u3060\u3055": 2493,
  "\u2581\u4e92\u3044": 2494,
  "\u3061\u3089": 2495,
  "\u2581powerful": 2496,
  "\u2581negative": 2497,
  "\u2581\u305d\u3046\u3044\u3046": 2498,
  "\u2581results": 2499,
  "\u2581\u753a": 2500,
  "\u2581\u8a13\u7df4": 2501,
  "\u2581eight": 2502,
  "\u2581seeing": 2503,
  "\u2581Also": 2504,
  "\u2581temple": 2505,
  "\u2581recent": 2506,
  "\u2581prophecy": 2507,
  "\u98df\u3079": 2508,
  "\u3060\u308f": 2509,
  "\u2581carry": 2510,
  "ial": 2511,
  "\u2581forget": 2512,
  "\u901a": 2513,
  "\u2581t": 2514,
  "\u97f3": 2515,
  "\u2581righteousness": 2516,
  "\u2581worth": 2517,
  "\u2581\u8db3": 2518,
  "\u2581\u571f\u5730": 2519,
  "\u2581\u9577\u3044": 2520,
  "\u2581e": 2521,
  "\u2581Give": 2522,
  "\u751f\u6d3b": 2523,
  "\u51fa\u6765\u308b": 2524,
  "\u72b6\u614b": 2525,
  "\u2581b": 2526,
  "\u2581\u9031": 2527,
  "\u2581\u98df\u3079": 2528,
  "\u2581offer": 2529,
  "\u2581cold": 2530,
  "\u2581\u671f\u9593": 2531,
  "\u2581considered": 2532,
  "\u7d04\u675f": 2533,
  "\u305d\u3093\u306a": 2534,
  "\u2581\u30b9": 2535,
  "\u2581\u5168\u90e8": 2536,
  "\u306a\u304d\u3083": 2537,
  "\u2581\u6575": 2538,
  "\u2581Corinthians": 2539,
  "\u2581\u4f7f\u7528": 2540,
  "\u2581\u81f3\u308b": 2541,
  "\u2581appreciate": 2542,
  "\u30c3": 2543,
  "\u2581supposed": 2544,
  "\u2581\u66b4\u529b": 2545,
  "\u2581decision": 2546,
  "\u2581spend": 2547,
  "\u258170": 2548,
  "\u6700\u3082": 2549,
  "\u2581\u4eba\u3073\u3068": 2550,
  "\u2581medical": 2551,
  "\u2581\u305d\u308c\u305e\u308c": 2552,
  "\u2581worry": 2553,
  "\u2581activity": 2554,
  "\u2581\u51fa\u7248": 2555,
  "\u2581serving": 2556,
  "\u2581kids": 2557,
  "\u2581wonderful": 2558,
  "\u2581\u306a\u305c\u306a\u3089": 2559,
  "\u2581\u5199\u771f": 2560,
  "\u2581named": 2561,
  "\u7d42": 2562,
  "\u63a2\u3057": 2563,
  "\u6575": 2564,
  "\u2581\u304a\u9858\u3044": 2565,
  "\u7d04": 2566,
  "up": 2567,
  "\u2581\u307e\u305f\u306f": 2568,
  "\u2581\u3082\u305f\u3089\u3059": 2569,
  "\u2581cost": 2570,
  "\u2581quickly": 2571,
  "\u2581major": 2572,
  "\u2581\u516c": 2573,
  "\u2581violence": 2574,
  "\u2581\u671f\u5f85": 2575,
  "\u2581\u6210\u529f": 2576,
  "\u2581Could": 2577,
  "\u2581\u7686\u3055\u3093": 2578,
  "\u2581effort": 2579,
  "\u2581\u6c42\u3081\u308b": 2580,
  "\u2581\u811a\u6ce8": 2581,
  "\u258135": 2582,
  "\u2581hundred": 2583,
  "\u2581lie": 2584,
  "\u2581\u592b\u5a66": 2585,
  "\u30b7": 2586,
  "\u8d77\u3053": 2587,
  "\u2581playing": 2588,
  "ch": 2589,
  "\u2581thousand": 2590,
  "\u2581practice": 2591,
  "\u2581anymore": 2592,
  "\u2581command": 2593,
  "\u2581general": 2594,
  "\u6025": 2595,
  "\u2581spoke": 2596,
  "\u7d76\u5bfe": 2597,
  "\u2581level": 2598,
  "\u2581\u6b7b\u306c": 2599,
  "\u2581Timothy": 2600,
  "\u3055\u308c\u3066\u3044\u308b": 2601,
  "\u2581\u5cf6": 2602,
  "\u2581\u6df1\u3044": 2603,
  "\u2581\u6700\u9ad8": 2604,
  "\u2581More": 2605,
  "\u2581\u5f93\u3046": 2606,
  "\u2581\u3086\u3048\u306b": 2607,
  "\u2581\u5104": 2608,
  "\u2581shown": 2609,
  "\u9ad8": 2610,
  "\u2581\u4f4f\u3093": 2611,
  "\u2581\u30c9\u30eb": 2612,
  "\u30d9": 2613,
  "\u2581\u4fdd\u3064": 2614,
  "\u2581\u75c5": 2615,
  "\u7406\u89e3": 2616,
  "\u2581moving": 2617,
  "\u2581\u30b8\u30e7\u30f3": 2618,
  "\u2581\u30c6\u30ec\u30d3": 2619,
  "\u2581mentioned": 2620,
  "\u2581numbers": 2621,
  "\u2581\u30c0\u30cb\u30a8\u30eb": 2622,
  "\u2581expect": 2623,
  "\u2581ability": 2624,
  "\u2581led": 2625,
  "\u2581process": 2626,
  "\u25813.": 2627,
  "\u2581asking": 2628,
  "\u2581spent": 2629,
  "\u2581\u80fd\u529b": 2630,
  "\u2581Christendom": 2631,
  "\u2581allow": 2632,
  "\u2581\u30c7": 2633,
  "\u2581\u5f62": 2634,
  "\u2581Witness": 2635,
  "\u2581\u3057\u304b\u3082": 2636,
  "\u2581image": 2637,
  "\u2581\u5ddd": 2638,
  "\u2581team": 2639,
  "\u2581\u30e1\u30fc\u30c8\u30eb": 2640,
  "\u2581\u4e21\u89aa": 2641,
  "\u756a": 2642,
  "\u2581\u5897\u52a0": 2643,
  "\u7f6a": 2644,
  "\u2581fun": 2645,
  "\u2581\u3053\u308d": 2646,
  "\u2581\u30d1\u30d1": 2647,
  "\u2581\u50cd\u304d": 2648,
  "\u8a8c": 2649,
  "\u5c71": 2650,
  "\u2581subject": 2651,
  "\u5fd8\u308c": 2652,
  "\u2581\u3059\u304e": 2653,
  "\u2581\u706b": 2654,
  "no": 2655,
  "\u2581Law": 2656,
  "\u2581add": 2657,
  "\u2581families": 2658,
  "\u306a\u3057": 2659,
  "\u2581\u307e\u3055\u306b": 2660,
  "\u2581Which": 2661,
  "\u2581bed": 2662,
  "\u2581\u56fd\u969b": 2663,
  "%": 2664,
  "\u2581Dad": 2665,
  "\u2581kindness": 2666,
  "\u5168": 2667,
  "\u2581pass": 2668,
  "\u2581hospital": 2669,
  "\u2581stated": 2670,
  "\u2581party": 2671,
  "\u2581road": 2672,
  "\u2581\u535a\u58eb": 2673,
  "\u2581pray": 2674,
  "\u2581increase": 2675,
  "\u2581events": 2676,
  "\u2581\u66f8\u304d": 2677,
  "\u2581\u4ee3": 2678,
  "\u58f0": 2679,
  "\u2581individual": 2680,
  "\u2581mine": 2681,
  "\u2581Jewish": 2682,
  "\u7d42\u308f\u308a": 2683,
  "\u2581tells": 2684,
  "\u98a8": 2685,
  "\u6587\u5b57": 2686,
  "\u2581anointed": 2687,
  "\u2581minus": 2688,
  "\u6700\u521d": 2689,
  "\u2581passed": 2690,
  "\u30d7": 2691,
  "ism": 2692,
  "\u2581believers": 2693,
  "\u4eba\u751f": 2694,
  "\u2581rich": 2695,
  "\u30d0\u30fc": 2696,
  "\u2581oil": 2697,
  "\u2581\u9001": 2698,
  "\u2581fuck": 2699,
  "\u2581added": 2700,
  "\u2581explain": 2701,
  "\u2581draw": 2702,
  "\u2581\u98df\u7269": 2703,
  "\u2581\u7c21\u5358": 2704,
  "\u2581\u76e3\u7763": 2705,
  "\u2581prophet": 2706,
  "\u2581sex": 2707,
  "\u4fe1": 2708,
  "+": 2709,
  "\u2581About": 2710,
  "\u2581willing": 2711,
  "\u2581\u5168\u3066": 2712,
  "\u2581\u7fd2\u6163": 2713,
  "\u9593\u306b": 2714,
  "\u9032\u3093": 2715,
  "\u2581\u7d4c\u6e08": 2716,
  "\u660e": 2717,
  "\u2581\u5404": 2718,
  "\u2581explained": 2719,
  "\u2581crime": 2720,
  "\u2581sit": 2721,
  "\u30b0": 2722,
  "\u2581computer": 2723,
  "\u601d": 2724,
  "\u8a00\u308f": 2725,
  "\u307e\u305f\u306f": 2726,
  "\u898b\u305b": 2727,
  "\u2581\u76f8\u624b": 2728,
  "gt": 2729,
  "\u2581continued": 2730,
  "\u2581freedom": 2731,
  "\u2581\u6e96\u5099": 2732,
  "\u2581\u5b9a\u3081": 2733,
  "\u306b\u5bfe\u3057\u3066": 2734,
  "\u2581resurrection": 2735,
  "\u6700\u5f8c": 2736,
  "\u2581sacrifice": 2737,
  "\u2581fish": 2738,
  "\u2581direction": 2739,
  "\u2581gift": 2740,
  "\u2581raised": 2741,
  "\u2581create": 2742,
  "\u2581prison": 2743,
  "\u2581\u63f4\u52a9": 2744,
  "\u2581begin": 2745,
  "\u2581inspired": 2746,
  "\u2581\u307f\u306a": 2747,
  "\u2581\u304b\u3064\u3066": 2748,
  "\u2581\u51fa\u6765\u4e8b": 2749,
  "\u2581\u5927\u52e2": 2750,
  "\u2581\u6210\u5c31": 2751,
  "\u2581\u6e80\u8db3": 2752,
  "\u2581reported": 2753,
  "\u2581Was": 2754,
  "\u2581shot": 2755,
  "\u2581\u767a\u898b": 2756,
  "\u2581color": 2757,
  "\u2581followed": 2758,
  "ia": 2759,
  "\u3044\u304f\u3064": 2760,
  "rs": 2761,
  "\u2581destruction": 2762,
  "\u2581training": 2763,
  "\u2581True": 2764,
  "\u2581\u30a2\u30c0\u30e0": 2765,
  "\u2581\u6bce\u65e5": 2766,
  "\u2581\u60aa\u9b54": 2767,
  "\u2581imagine": 2768,
  "\u6b63\u3057\u3044": 2769,
  "\u2581\u8a9e\u308a": 2770,
  "\u2581\u9ad8": 2771,
  "ar": 2772,
  "\u7406": 2773,
  "\u5b58\u5728": 2774,
  "\u60aa": 2775,
  "\u6728": 2776,
  "\u2581recently": 2777,
  "\u2581seek": 2778,
  "\u2581nature": 2779,
  "\u2581\u30de\u30de": 2780,
  "\u2581normal": 2781,
  "\u2581\u9a5a\u304f": 2782,
  "\u30b8": 2783,
  "\u8aac\u660e": 2784,
  "20": 2785,
  "\u53d6\u308a": 2786,
  "\u2581minute": 2787,
  "\u2581\u52a9\u3051\u308b": 2788,
  "\u2581South": 2789,
  "What": 2790,
  "\u82f1\u8a9e": 2791,
  "ate": 2792,
  "\u2581clearly": 2793,
  "\u6483": 2794,
  "\u25818,": 2795,
  "\u2581god": 2796,
  "\u2581\u30e8\u30d6": 2797,
  "ri": 2798,
  "il": 2799,
  "\u5ba4": 2800,
  "\u2581\u4e00\u756a": 2801,
  "kg": 2802,
  "\u2581efforts": 2803,
  "\u3063\u305f\u304b": 2804,
  "\u2581gain": 2805,
  "\u2581\u5357": 2806,
  "\u904e\u304e": 2807,
  "\u30a8": 2808,
  "de": 2809,
  "\u2581low": 2810,
  "\u2581\u7f8a": 2811,
  "\u2581meant": 2812,
  "\u4ed8\u3051": 2813,
  "\u2581\u30b0\u30eb\u30fc\u30d7": 2814,
  "\u3060\u3051\u3069": 2815,
  "\u2581secret": 2816,
  "\u2581hot": 2817,
  "ro": 2818,
  "\u2581apostles": 2819,
  "\u6d3e": 2820,
  "do": 2821,
  "\u4eba\u3005": 2822,
  "\u898b\u3048\u308b": 2823,
  "\u258112:": 2824,
  "\u2581earlier": 2825,
  "=": 2826,
  "\u2581=": 2827,
  "\u2581Job": 2828,
  "\u2581believed": 2829,
  "\u2581mercy": 2830,
  "\u2581\u5317": 2831,
  "\u2581patient": 2832,
  "\u6bcd": 2833,
  "\u2581\u65c5\u884c": 2834,
  "\u2581term": 2835,
  "\u2581\u53cb\u9054": 2836,
  "\u2581promised": 2837,
  "\u2581>": 2838,
  "\u2581beyond": 2839,
  "\u78ba\u8a8d": 2840,
  "\u2581\u90aa\u60aa": 2841,
  "\u2581judgment": 2842,
  "\u2581standing": 2843,
  "\u2581\u623b": 2844,
  "\u2581teacher": 2845,
  "\u2581kid": 2846,
  "30": 2847,
  "\u4e92\u3044": 2848,
  "\u2581pressure": 2849,
  "\u2581\u30a8\u30d5\u30a7\u30bd\u30b9": 2850,
  "\u2581date": 2851,
  "\u5199\u771f": 2852,
  "\u2581\u5f0f": 2853,
  "\u2581\u30e8\u30fc\u30ed\u30c3\u30d1": 2854,
  "\u305f\u3060": 2855,
  "\u2581girls": 2856,
  "\u2581train": 2857,
  "\u2581size": 2858,
  "\u2581cell": 2859,
  "\u4ef2\u9593": 2860,
  "\u2581\u53cd\u5fdc": 2861,
  "\u3069\u3093\u306a": 2862,
  "\u2581amount": 2863,
  "\u2581everlasting": 2864,
  "\u2581Daniel": 2865,
  "\u2581revealed": 2866,
  "\u2581bear": 2867,
  "\u2581\u6559\u3048\u308b": 2868,
  "\u305d\u3057\u3066": 2869,
  "\u2581\u592a\u967d": 2870,
  "\u9577": 2871,
  "\u2581\u97f3": 2872,
  "\u2581drugs": 2873,
  "\u2581non": 2874,
  "\u2581creation": 2875,
  "\u5217": 2876,
  "\u30ac": 2877,
  "\u4e8c": 2878,
  "\u2581angels": 2879,
  "\u2581advice": 2880,
  "\u25812,": 2881,
  "\u2581calls": 2882,
  "\u2581society": 2883,
  "\u2581touch": 2884,
  "\u2581\u5c0b\u306d": 2885,
  "\u2581Footnote": 2886,
  "\u2581\u3042\u307e\u308a": 2887,
  "\u2581honor": 2888,
  "\u2581conditions": 2889,
  "\u2581followers": 2890,
  "\u2581\u5b9a": 2891,
  "\u6c42\u3081": 2892,
  "\u258145": 2893,
  "\u2581\u6ce8\u76ee": 2894,
  "\u2581\u547d\u4ee4": 2895,
  "\u2581individuals": 2896,
  "\u2581\u7a2e\u985e": 2897,
  "\u2581leaving": 2898,
  "\u2581\u4ed5\u65b9": 2899,
  "\u2581areas": 2900,
  "\u2581final": 2901,
  "\u2581\u6804\u5149": 2902,
  "\u3059\u308b\u3053\u3068\u304c": 2903,
  "\u2581moral": 2904,
  "\u2581\u4fe1\u8005": 2905,
  "\u8a08\u753b": 2906,
  "\u2581population": 2907,
  "\u2581former": 2908,
  "\u5927\u4e08\u592b": 2909,
  "\u8239": 2910,
  "X": 2911,
  "\u5074": 2912,
  "\u2581\u4e8b\u614b": 2913,
  "\u2581produce": 2914,
  "\u2581\u5b88\u308b": 2915,
  "\u2581\u6a29\u5a01": 2916,
  "\u2581regarding": 2917,
  "\u65b0": 2918,
  "\u2581Devil": 2919,
  "\u2581\u8133": 2920,
  "\u2581unto": 2921,
  "\u8ab0\u304b": 2922,
  "\u2581Book": 2923,
  "\u2581Earth": 2924,
  "\u2581Nothing": 2925,
  "\u2581\u97f3\u697d": 2926,
  "\u2581\u5ba3\u3079\u4f1d\u3048\u308b": 2927,
  "\u2581dangerous": 2928,
  "\u2581Awake": 2929,
  "\u2581Rather": 2930,
  "\u2581\u91cf": 2931,
  "\u2581saved": 2932,
  "\u305f\u3093": 2933,
  "ton": 2934,
  "\u2581reasons": 2935,
  "\u2581\u597d\u304d": 2936,
  "\u2581returned": 2937,
  "\u2581\u7528": 2938,
  "\u3046\u3061": 2939,
  "\u2581regular": 2940,
  "\u3069\u3046\u304b": 2941,
  "\u2581\u307e\u3042": 2942,
  "\u8a2d\u5b9a": 2943,
  "\u306a\u3051\u308c\u3070\u306a\u3089\u306a": 2944,
  "\u2581circumstances": 2945,
  "\u2581answers": 2946,
  "\u8a31": 2947,
  "\u2581proper": 2948,
  "\u4eba\u3073\u3068": 2949,
  "less": 2950,
  "\u25815.": 2951,
  "\u51fa\u3059": 2952,
  "\u2581drive": 2953,
  "\u4f7f\u3046": 2954,
  "\u2581contact": 2955,
  "\u91ce": 2956,
  "\u2581points": 2957,
  "\u4e00\u5ea6": 2958,
  "\u2581risk": 2959,
  "\u2581choose": 2960,
  "\u2581sexual": 2961,
  "\u610f": 2962,
  "\u2581mouth": 2963,
  "\u2581\u3055\u3066": 2964,
  "\u2581\u56fd\u5bb6": 2965,
  "\u30df": 2966,
  "\u2581science": 2967,
  "\u258110:": 2968,
  "\u81ea": 2969,
  "\u8a00": 2970,
  "\u7a2e": 2971,
  "\u258110.": 2972,
  "\u2581expression": 2973,
  "\u2581Mark": 2974,
  "\u2581\u5b66\u3076": 2975,
  "\u2581accepted": 2976,
  "\u2581attack": 2977,
  "\u2581animal": 2978,
  "\u2581destroyed": 2979,
  "\u2581laws": 2980,
  "\u2581throughout": 2981,
  "\u2581Europe": 2982,
  "\u2581French": 2983,
  "\u2581\u73fe\u5b9f": 2984,
  "\u3089\u304b": 2985,
  "\u2581particular": 2986,
  "\u2581Over": 2987,
  "\u2581growing": 2988,
  "\u2581allowed": 2989,
  "\u884c\u304b": 2990,
  "\u5e38": 2991,
  "ive": 2992,
  "\u2581\u305d\u308c\u306b": 2993,
  "\u2581becomes": 2994,
  "\u2581\u6b4c": 2995,
  "\u2581Listen": 2996,
  "\u5149": 2997,
  "\u5927\u304d\u306a": 2998,
  "\u3054\u3056": 2999,
  "\u54e1": 3000,
  "\u2581\u7591\u554f": 3001,
  "\u2581\u975e": 3002,
  "\u2581\u8056": 3003,
  "\u30fc\u30eb": 3004,
  "\u305b\u3044": 3005,
  "\u2581\u6a21\u7bc4": 3006,
  "\u7d9a\u3051": 3007,
  "\u2581education": 3008,
  "\u5ea7": 3009,
  "W": 3010,
  "\u2581becoming": 3011,
  "ies": 3012,
  "\u2581\u66f8\u304b": 3013,
  "\u306b\u304a\u3044\u3066": 3014,
  "\u2581failed": 3015,
  "\u2581\u3042\u3089": 3016,
  "\u25817:": 3017,
  "\u2581Perhaps": 3018,
  "\u30ad": 3019,
  "est": 3020,
  "\u2581flesh": 3021,
  "\u2581positive": 3022,
  "\u2581Romans": 3023,
  "\u2581video": 3024,
  "\u2581\u30a8\u30ec\u30df\u30e4": 3025,
  "\u2581proved": 3026,
  "\u258111:": 3027,
  "\u2581homes": 3028,
  "\u2581piece": 3029,
  "\u2581\u8a00\u3048\u308b": 3030,
  "\u2581\u9023\u308c": 3031,
  "\u2581Germany": 3032,
  "\u2581St": 3033,
  "\u2581walking": 3034,
  "\u2581\u74b0\u5883": 3035,
  "of": 3036,
  "\u306a\u304c\u3089": 3037,
  "\u2581\u3053\u308c\u3089\u306e": 3038,
  "\u2581\u898b\u3064\u3051": 3039,
  "\u2581\u5bcc": 3040,
  "\u6b63": 3041,
  "\u2581\u559c": 3042,
  "\u2581favor": 3043,
  "\u2581\u305f\u3068\u3048": 3044,
  "\u2581\u795e\u6bbf": 3045,
  "\u2581ship": 3046,
  "\u2581\u7269\u4e8b": 3047,
  "\u6226": 3048,
  "\u2581condition": 3049,
  "\u2581dog": 3050,
  "\u2581address": 3051,
  "\u2581cancer": 3052,
  "\u2581\u8056\u970a": 3053,
  "\u2581none": 3054,
  "\u2581\u30a8": 3055,
  "\u2581\u97f3\u4fe1": 3056,
  "\u30ea\u30b9\u30c8": 3057,
  "\u2581influence": 3058,
  "\u30bf\u30fc": 3059,
  "\u884c\u3051": 3060,
  "\u2581\u30af\u30ec\u30b8\u30c3\u30c8": 3061,
  "\u3044\u3064\u3082": 3062,
  "\u2581Consider": 3063,
  "\u306e\u9593": 3064,
  "\u2581\u53d6\u308a": 3065,
  "\u2581original": 3066,
  "\u3054": 3067,
  "\u2581g": 3068,
  "\u2581concern": 3069,
  "\u2581\u6b63\u76f4": 3070,
  "\u2581greatest": 3071,
  "\u9803": 3072,
  "\u2581sheep": 3073,
  "\u4ed6\u306e": 3074,
  "\u2581\u732e\u8eab": 3075,
  "\u2581total": 3076,
  "\u2581\u8a69": 3077,
  "\u2581Credit": 3078,
  "\u2581\u5c02\u9580": 3079,
  "\u2581difference": 3080,
  "\u2581hair": 3081,
  "ul": 3082,
  "\u2581instance": 3083,
  "\u8a00\u3048": 3084,
  "\u2581research": 3085,
  "\u258137": 3086,
  "\u3044\u3067": 3087,
  "\u8fd4\u3057": 3088,
  "co": 3089,
  "\u306b\u3088\u308b": 3090,
  "\u2581\u2212": 3091,
  "op": 3092,
  "\u2581search": 3093,
  "\u2581Un": 3094,
  "\u2581\u5168\u54e1": 3095,
  "\u2581gun": 3096,
  "\u2581sight": 3097,
  "\u6b62\u3081": 3098,
  "\u2581Help": 3099,
  "):": 3100,
  "\u2581Hebrew": 3101,
  "\u2581\u4ee5\u6765": 3102,
  "\u304d\u307e": 3103,
  "\u30c6\u30a3": 3104,
  "\u2581pre": 3105,
  "\u2581covenant": 3106,
  "\u2581trees": 3107,
  "\u6a29": 3108,
  "\u2581responsibility": 3109,
  "\u606f\u5b50": 3110,
  "\u2581boys": 3111,
  "\u2581\u5fe0\u7bc0": 3112,
  "\u2581Ah": 3113,
  "\u2581\u751f\u7269": 3114,
  "\u4e8c\u4eba": 3115,
  "\u2581\u76ee\u6a19": 3116,
  "\u30ce": 3117,
  "\u2581\u9577": 3118,
  "\u2581\u82e6\u3057\u307f": 3119,
  "\u2581crowd": 3120,
  "\u2581justice": 3121,
  "\u7d50\u679c": 3122,
  "\u2581cover": 3123,
  "\u2581d": 3124,
  "\u2581tonight": 3125,
  "\u2581Hall": 3126,
  "\u5206\u304b\u308b": 3127,
  "\u2581basis": 3128,
  "\u2581happening": 3129,
  "one": 3130,
  "\u5618": 3131,
  "\u2581machine": 3132,
  "\u2581writing": 3133,
  "\u2581box": 3134,
  "\u2581\u904b\u52d5": 3135,
  "ian": 3136,
  "\u2581explains": 3137,
  "\u30ab\u30fc": 3138,
  "\u2581dark": 3139,
  "\u2581dad": 3140,
  "\u77e5\u308a": 3141,
  "\u2581\u53cb": 3142,
  "\u8aad": 3143,
  "\u2581pick": 3144,
  "\u2581\u6210\u9577": 3145,
  "\u2581paper": 3146,
  "\u3069\u306e": 3147,
  "\u2581seemed": 3148,
  "\u2581\u826f\u5fc3": 3149,
  "\u2581Every": 3150,
  "\u2581danger": 3151,
  "\u2581helping": 3152,
  "\u25818.": 3153,
  "\u2581\u65b0\u305f": 3154,
  "\u2581\u6700\u5927": 3155,
  "\u2581enter": 3156,
  "\u2581keeping": 3157,
  "\u2581centuries": 3158,
  "\u2581Hence": 3159,
  "\u2581speech": 3160,
  "\u5a18": 3161,
  "\u899a\u3048": 3162,
  "\u2581apply": 3163,
  "\u8840": 3164,
  "\u2581loss": 3165,
  "\u5fc5\u305a": 3166,
  "\u2581\u3057\u3063\u304b\u308a": 3167,
  "\u2581Before": 3168,
  "\u2581punishment": 3169,
  "\u2581success": 3170,
  "\u25814)": 3171,
  "\u307e\u3048": 3172,
  "\u2581path": 3173,
  "\u4ee5\u524d": 3174,
  "\u2581\u6280\u8853": 3175,
  "\u2581\u958b\u304b": 3176,
  "be": 3177,
  "\u2581\u7279\u8cea": 3178,
  "\u305f\u6642": 3179,
  "\u2581nearly": 3180,
  "\u3088\u3044": 3181,
  "\u2581published": 3182,
  "\u2581lands": 3183,
  "\u2581cells": 3184,
  "\u2581universe": 3185,
  "\u2581\u88c1\u5224": 3186,
  "\u2581\u30de": 3187,
  "\u2581\u5834": 3188,
  "\u2581\u75c5\u9662": 3189,
  "\u2581Line": 3190,
  "\u2581Holy": 3191,
  "\u3082\u3063\u3068": 3192,
  "\u2581arrived": 3193,
  "\u2581signs": 3194,
  "\u2581\u9ce5": 3195,
  "\u3059\u3079\u3066\u306e": 3196,
  "\u66f8\u304d": 3197,
  "\u2581\u5316": 3198,
  "ous": 3199,
  "\u2581described": 3200,
  "\u2581served": 3201,
  "\u2581\u3070\u304b\u308a": 3202,
  "\u2581\u8003\u616e": 3203,
  "\u2581average": 3204,
  "\u3089\u305b": 3205,
  "\u2581\u4e3b\u5f35": 3206,
  "\u2581noted": 3207,
  "\u2581\u9283": 3208,
  "\u2581\u76f4\u9762": 3209,
  "\u2581\u901a\u308a": 3210,
  "\u2581Remember": 3211,
  "\u2581\u8089": 3212,
  "\u2581groups": 3213,
  "\u975e\u5e38": 3214,
  "out": 3215,
  "\u2581evening": 3216,
  "\u2581names": 3217,
  "\u2581military": 3218,
  "\u2581\u90e8": 3219,
  "\u2581developed": 3220,
  "\u2581\u304f\u308b": 3221,
  "\u2581\u898b\u3066": 3222,
  "\u2581gold": 3223,
  "\u2581examples": 3224,
  "\u8abf\u3079": 3225,
  "\u2581\u8868\u73fe": 3226,
  "\u2581\u56f2\u307f": 3227,
  "\u2581Still": 3228,
  "\u5c31": 3229,
  "\u2581hate": 3230,
  "\u5211": 3231,
  "\u2581\u3054\u81ea\u8eab": 3232,
  "\u2581pages": 3233,
  "\u2581basic": 3234,
  "\u2581immediately": 3235,
  "\u25811914": 3236,
  "\u98df": 3237,
  "\u2581sins": 3238,
  "\u2581\u30a2\u30d6\u30e9\u30cf\u30e0": 3239,
  "\u2581Tower": 3240,
  "\u2581crazy": 3241,
  "\u2581daily": 3242,
  "\u2581somebody": 3243,
  "\u2581lack": 3244,
  "\u2581\u3086\u304d": 3245,
  "\u2581Solomon": 3246,
  "\u2581calling": 3247,
  "\u2581drug": 3248,
  "\u2581De": 3249,
  "\u2581\u96d1\u8a8c": 3250,
  "\u2581\u3082\u306e\u307f\u306e\u5854": 3251,
  "\u2581\u969c\u5bb3": 3252,
  "\u4f1a\u793e": 3253,
  "\u5178": 3254,
  "\u2581\u8056\u53e5": 3255,
  "\u2581\u52b9\u679c": 3256,
  "\u2581\u507d\u308a": 3257,
  "\u2581\u8a3c\u660e": 3258,
  "\u2581\u8ffd": 3259,
  "\u2581TV": 3260,
  "\u2581\u2022": 3261,
  "\u2581main": 3262,
  "all": 3263,
  "\u2581exercise": 3264,
  "\u2581confidence": 3265,
  "\u2581leaders": 3266,
  "\u2581vital": 3267,
  "\u2581\u3046\u307e\u304f": 3268,
  "\u2581showing": 3269,
  "\u2581\u9ebb\u85ac": 3270,
  "\u2581table": 3271,
  "\u884c\u3044": 3272,
  "\u2581appointed": 3273,
  "\u6e96\u5099": 3274,
  "\u25817.": 3275,
  "\u2581race": 3276,
  "\u2581\u6b8b\u308a": 3277,
  "\u2581\u98df\u4e8b": 3278,
  "\u58eb": 3279,
  "\u62cd": 3280,
  "\u2581regard": 3281,
  "\u2581reward": 3282,
  "\u7d50\u5a5a": 3283,
  "\u2581billion": 3284,
  "\u2581eating": 3285,
  "\u2581\u4e21": 3286,
  "\u2581\u3082\u306f\u3084": 3287,
  "\u4f1d\u3048": 3288,
  "\u2581role": 3289,
  "\u2581\u6cb9\u305d\u305d": 3290,
  "\u305f\u3088": 3291,
  "\u2581cities": 3292,
  "\u2581slave": 3293,
  "\u2581yourselves": 3294,
  "\u2581\u3068\u3053\u308d\u304c": 3295,
  "\u2581rate": 3296,
  "\u2581treatment": 3297,
  "ant": 3298,
  "\u2581\u305d\u306e\u4ed6": 3299,
  "\u2581huge": 3300,
  "\u8a71\u3059": 3301,
  "\u2581worse": 3302,
  "\u30b7\u30b9\u30c6\u30e0": 3303,
  "\u30e4": 3304,
  "\u4e0d\u4fe1": 3305,
  "\u30cd": 3306,
  "\u2581guidance": 3307,
  "\u2581huh": 3308,
  "\u308f\u304b": 3309,
  "\u2581glory": 3310,
  "\u5909\u3048": 3311,
  "\u2581rain": 3312,
  "\u2581\u5f53\u7136": 3313,
  "\u2581\u304f\u308c\u308b": 3314,
  "\u2581\u8981\u6c42": 3315,
  "\u2581\u57fa\u672c": 3316,
  "\u2581\u5c0e\u304d": 3317,
  "\u2581\u5e74\u4ee3": 3318,
  "\u258112.": 3319,
  "\u2581\u4f3c": 3320,
  "Do": 3321,
  "\u2581\u5951\u7d04": 3322,
  "\u2581\u5927\u304d\u304f": 3323,
  "\u2581\u62e1\u5927": 3324,
  "\u2581\u653b\u6483": 3325,
  "\u2581\u8cb4": 3326,
  "\u2581\u512a\u308c": 3327,
  "\u2581realized": 3328,
  "\u2581\u5bfe\u51e6": 3329,
  "\u308b\u308f": 3330,
  "\u2581straight": 3331,
  "\u2581newspaper": 3332,
  "\u25819.": 3333,
  "\u2581\u9854": 3334,
  "\u2581\u6319\u3052": 3335,
  "ish": 3336,
  "\u7a7a": 3337,
  "\u59bb": 3338,
  "\u2581\u8feb\u5bb3": 3339,
  "\u2581spread": 3340,
  "\u2581filled": 3341,
  "\u2581murder": 3342,
  "\u2581\u5206\u304b\u308b": 3343,
  "\u5834\u5408\u306f": 3344,
  "\u2581\u591a": 3345,
  "\u2581\u5411\u3051": 3346,
  "son": 3347,
  "\u30d3": 3348,
  "\u2581Though": 3349,
  "\u2581\u656c\u610f": 3350,
  "\u2581Japanese": 3351,
  "\u661f": 3352,
  "\u2581agree": 3353,
  "ne": 3354,
  "\u3061\u3083\u3093": 3355,
  "\u53ef\u80fd\u6027": 3356,
  "\u2581blessing": 3357,
  "\u2581street": 3358,
  "\u2581middle": 3359,
  "\u2581everybody": 3360,
  "\u2581warning": 3361,
  "\u2581\u305d\u308c\u3068\u3082": 3362,
  "\u6c17\u306b": 3363,
  "\u2581youths": 3364,
  "v": 3365,
  "\u2581conscience": 3366,
  "\u2581price": 3367,
  "\u4f4d": 3368,
  "\u258111.": 3369,
  "\u2581Should": 3370,
  "am": 3371,
  "\u2581minister": 3372,
  "\u2581\u3072\u3068\u308a": 3373,
  "\u5931": 3374,
  "HP": 3375,
  "\u2581\u5206\u304b\u3089": 3376,
  "\u304b\u3057\u3089": 3377,
  "\u2581Instead": 3378,
  "ine": 3379,
  "\u6bba\u3059": 3380,
  "\u96e2\u308c": 3381,
  "\u7c21\u5358": 3382,
  "id": 3383,
  "\u5f79": 3384,
  "\u2581\u660e\u65e5": 3385,
  "\u2581Noah": 3386,
  "\u258134": 3387,
  "\u5225": 3388,
  "\u25811,000": 3389,
  "\u25814,": 3390,
  "\u2581\u4ed5\u3048\u308b": 3391,
  "\u2581\u7528\u3044\u308b": 3392,
  "\u4eca\u5ea6": 3393,
  "\u258136": 3394,
  "\u2581\u53d6\u308b": 3395,
  "\u25816.": 3396,
  "\u2581code": 3397,
  "\u2581thoughts": 3398,
  "\u2581\u4e88\u544a": 3399,
  "\u30e9\u30fc": 3400,
  "\u2581Once": 3401,
  "\u9031\u9593": 3402,
  "V": 3403,
  "\u2581extreme": 3404,
  "\u2581\u5f37\u304f": 3405,
  "\u258113:": 3406,
  "\u2581Times": 3407,
  "\u2581\u50be\u5411": 3408,
  "\u2581Time": 3409,
  "\u79fb\u52d5": 3410,
  "\u2581busy": 3411,
  "\u2581dream": 3412,
  "In": 3413,
  "\u2581careful": 3414,
  "\u2581sisters": 3415,
  "\u6545": 3416,
  "\u2581\u3054\u610f\u5fd7": 3417,
  "\u2581\u500d": 3418,
  "\u2581higher": 3419,
  "\u5c0f": 3420,
  "\u2581community": 3421,
  "\u2581concerned": 3422,
  "\u4f1a\u3044": 3423,
  "\u2581fell": 3424,
  "\u2581\u3044\u308d\u3044\u308d": 3425,
  "\u2581\u5143": 3426,
  "\u258114.": 3427,
  "\u2581foot": 3428,
  "\u2581\u75c7": 3429,
  "\u2581Therefore": 3430,
  "\u5b9f\u884c": 3431,
  "\u5b66\u6821": 3432,
  "\u2581knowing": 3433,
  "\u2581\u30aa": 3434,
  "\u7b97": 3435,
  "\u2581\u3082\u305f\u3089\u3057": 3436,
  "\u5206\u304b\u3089": 3437,
  "\u3082\u306a\u304f": 3438,
  "\u2581wide": 3439,
  "\u5909\u66f4": 3440,
  "\u2581Babylon": 3441,
  "\u2581\u5927\u5909": 3442,
  "\u2581art": 3443,
  "\u2581reached": 3444,
  "\u2581\u5074": 3445,
  "\u2581offered": 3446,
  "\u2581qualities": 3447,
  "\u5b89\u5168": 3448,
  "\u2581\u98db\u884c": 3449,
  "\u2581error": 3450,
  "\u2581\u6642\u671f": 3451,
  "\u3082\u306e\u307f\u306e\u5854": 3452,
  "\u2581\u652f\u6301": 3453,
  "\u5b9f\u969b": 3454,
  "\u5fc3\u914d": 3455,
  "\u2581heavy": 3456,
  "\u2581quality": 3457,
  "\u2581cool": 3458,
  "ized": 3459,
  "\u2581IN": 3460,
  "\u635c\u67fb": 3461,
  "\u2581aware": 3462,
  "If": 3463,
  "\u2581\u8c4a\u304b": 3464,
  "\u2581caught": 3465,
  "\u2581\u4ed8": 3466,
  "\u2581\u8a8d\u8b58": 3467,
  "\u2581\u6170\u3081": 3468,
  "\u2581develop": 3469,
  "\u2581\u4f59\u308a": 3470,
  "\u2581appear": 3471,
  "\u2581helps": 3472,
  "\u2581\u60f3\u50cf": 3473,
  "\u2581Genesis": 3474,
  "\u2581300": 3475,
  "\u2581member": 3476,
  "\u2581prepared": 3477,
  "\u5371\u967a": 3478,
  "\u2581\u5229\u7528": 3479,
  "\u2581\u8a3c\u8a00": 3480,
  "go": 3481,
  "\u2581congregations": 3482,
  "\u2581environment": 3483,
  "\u51fa\u3057": 3484,
  "\u2581easily": 3485,
  "\u2581\u521d\u671f": 3486,
  "\u2581putting": 3487,
  "\u6b7b\u306c": 3488,
  "God": 3489,
  "ING": 3490,
  "\u2581pleasure": 3491,
  "\u2581\u5b66\u3073": 3492,
  "\u2581German": 3493,
  "\u2581Pictures": 3494,
  "\u2581\u4f7f\u3046": 3495,
  "\u2581\u30de\u30eb\u30b3": 3496,
  "\u30c8\u30f3": 3497,
  "\u9055\u3044": 3498,
  "\u2581\u5fc3\u81d3": 3499,
  "\u2581\u5411\u304b": 3500,
  "\u2581green": 3501,
  "\u306a\u3089\u306a\u3044": 3502,
  "\u2581although": 3503,
  "\u3057\u307e\u3046": 3504,
  "\u2581dollars": 3505,
  "\u2581\u305d\u3046\u3059\u308c\u3070": 3506,
  "\u2581\u796d\u53f8": 3507,
  "\u2581recognize": 3508,
  "\u2581Joseph": 3509,
  "\u2581stopped": 3510,
  "\u2581suffer": 3511,
  "\u2581responsible": 3512,
  "\u2581\u7ffb\u8a33": 3513,
  "\u3050": 3514,
  "\u2581\u8a31\u3057": 3515,
  "\u2581\u3068\u3082": 3516,
  "\u4ef6": 3517,
  "\u2581Box": 3518,
  "\u2581France": 3519,
  "\u2581Matt": 3520,
  "\u2581\u3064\u3064": 3521,
  "\u2581\u50cd\u304f": 3522,
  "\u2581eventually": 3523,
  "\u2581hearing": 3524,
  "\u2581maintain": 3525,
  "\u4ee3": 3526,
  "\u2581scientists": 3527,
  "\u8868": 3528,
  "\u2581\u30d0\u30d3\u30ed\u30f3": 3529,
  "\u2581mental": 3530,
  "\u4e8b\u4ef6": 3531,
  "\u5bb9": 3532,
  "\u2581Ha": 3533,
  "\u2581firm": 3534,
  "\u4e00\u756a": 3535,
  "\u578b": 3536,
  "\u2581\u30ab": 3537,
  "\u2581\u4f7f\u308f": 3538,
  "\u2581technology": 3539,
  "\u2581\u53c2\u52a0": 3540,
  "\u9650\u308a": 3541,
  "\u304a\u91d1": 3542,
  "\u2581Us": 3543,
  "\u2581aren": 3544,
  "\u2581\u8a18\u8ff0": 3545,
  "\u306a\u3063": 3546,
  "\u2581\u8ce2\u660e": 3547,
  "\u2581\u7834\u58ca": 3548,
  "\u2581\u3075\u3055\u308f\u3057\u3044": 3549,
  "ling": 3550,
  "\u2581required": 3551,
  "\u2581nine": 3552,
  "\u2581priests": 3553,
  "\u91cd\u8981\u306a": 3554,
  "\u2581opened": 3555,
  "\u2581\u6587": 3556,
  "\u2581\u7387": 3557,
  "\u2581\u690d\u7269": 3558,
  "\u2581chapter": 3559,
  "\u2581\u8aad\u307f": 3560,
  "\u2581\u5341": 3561,
  "\u2581worldwide": 3562,
  "\u2581\u3059\u308b\u3068": 3563,
  "\u2581\u90e8\u5c4b": 3564,
  "\u3070\u304b\u308a": 3565,
  "\u308d\u3046\u3068": 3566,
  "\u5dde": 3567,
  "\u6d77": 3568,
  "\u2581causes": 3569,
  "\u2581goal": 3570,
  "\u4fe1\u8005": 3571,
  "\u85ac": 3572,
  "\u2581languages": 3573,
  "\u2581activities": 3574,
  "\u2581\u521d\u3081": 3575,
  "\u2581branch": 3576,
  "\u2581\u7d9a\u3051\u308b": 3577,
  "J": 3578,
  "\u2581\u71b1": 3579,
  "\u2581glad": 3580,
  "\u5165\u308a": 3581,
  "\u2581attend": 3582,
  "\u2581current": 3583,
  "\u2581include": 3584,
  "\u308b\u3068": 3585,
  "\u305f\u3082\u306e": 3586,
  "\u2581n": 3587,
  "\u2581\u30a8\u30b8\u30d7\u30c8": 3588,
  "\u2581Y": 3589,
  "\u2581\u95a2\u9023": 3590,
  "\u2581\u611f\u3058\u308b": 3591,
  "\u8ecd": 3592,
  "\u2581\u756a": 3593,
  "\u2581particularly": 3594,
  "\u2581workers": 3595,
  "\u2581Fuck": 3596,
  "\u2581Z": 3597,
  "\u2581copy": 3598,
  "\u2581\u51fa\u3057": 3599,
  "\u25815,": 3600,
  "ra": 3601,
  "\u2581University": 3602,
  "\u8a71\u3057": 3603,
  "\u2581\u304d\u3063\u3068": 3604,
  "\u2581\u307f\u306a\u3055": 3605,
  "\u2581\u5a66\u4eba": 3606,
  "\u2581\u7279\u6a29": 3607,
  "He": 3608,
  "\u2581km": 3609,
  "\u2581\u4f1a\u793e": 3610,
  "\u2581\u805e\u304d": 3611,
  "\u2581\u9593\u9055\u3044": 3612,
  "la": 3613,
  "\u2581object": 3614,
  "\u304b\u304b\u308f\u3089": 3615,
  "\u304e": 3616,
  "\u2581\u307e\u307e": 3617,
  "\u2581\u30b9\u30da\u30a4\u30f3": 3618,
  "\u258113.": 3619,
  "\u2581\u5148\u751f": 3620,
  "\u2581studying": 3621,
  "\u30c6": 3622,
  "\u2581\u7f8e\u3057\u3044": 3623,
  "\u5931\u6557": 3624,
  "\u2581\u9078\u629e": 3625,
  "\u540c": 3626,
  "\u2581\u85ac": 3627,
  "\u2581\u904e": 3628,
  "\u2581ran": 3629,
  "\u2581\u96e3\u3057\u3044": 3630,
  "te": 3631,
  "\u2581\u4f1a\u9928": 3632,
  "\u2581\u5909\u3048": 3633,
  "\u90e8": 3634,
  "\u7b49": 3635,
  "\u9023\u7d61": 3636,
  "This": 3637,
  "\u2581articles": 3638,
  "\u3044\u308f": 3639,
  "\u4e0a\u3052": 3640,
  "na": 3641,
  "\u5411\u304b": 3642,
  "um": 3643,
  "\u6240\u306b": 3644,
  "\u2581blessings": 3645,
  "\u2581\u307f\u308b": 3646,
  "\u2581island": 3647,
  "\u2581planet": 3648,
  "\u2581standards": 3649,
  "\u2581\u3048": 3650,
  "\u258115,": 3651,
  "\u2581ideas": 3652,
  "\u2581prayers": 3653,
  "\u2581center": 3654,
  "\u2581escape": 3655,
  "\u2581\u307f\u4f7f\u3044": 3656,
  "\u2581\u610f\u898b": 3657,
  "\u6587": 3658,
  "\u7686": 3659,
  "\u2581blue": 3660,
  "\u53cb\u9054": 3661,
  "\u2581concerning": 3662,
  "\u2581presence": 3663,
  "\u771f\u5b9f": 3664,
  "\u2581\u901a": 3665,
  "ary": 3666,
  "\u2581Al": 3667,
  "\u8ee2": 3668,
  "me": 3669,
  "\u2581president": 3670,
  "\u51fa\u308b": 3671,
  "\u2581\u30ea": 3672,
  "\u2581\u534a": 3673,
  "\u2581fruit": 3674,
  "un": 3675,
  "lo": 3676,
  "\u2581\u71b1\u5fc3": 3677,
  "\u5148\u751f": 3678,
  "\u2581Jeremiah": 3679,
  "\u2581related": 3680,
  "\u2581species": 3681,
  "\u30e2": 3682,
  "ty": 3683,
  "\u2581\u53d6\u3063": 3684,
  "\u2581\u82b1": 3685,
  "\u3061\u3087\u3063\u3068": 3686,
  "\u2581\u30e6\u30c0": 3687,
  "\u2581\u306a\u3055": 3688,
  "\u2581hundreds": 3689,
  "\u2581wind": 3690,
  "\u72b6\u6cc1": 3691,
  "\u2581Make": 3692,
  "\u7d20": 3693,
  "\u2581handle": 3694,
  "\u258180": 3695,
  "\u2581London": 3696,
  "\u2581earthly": 3697,
  "\u2581floor": 3698,
  "\u2581\u751f\u304d\u308b": 3699,
  "\u5263": 3700,
  "\u2581paid": 3701,
  "\u7acb": 3702,
  "\u2581comfort": 3703,
  "\u2581experienced": 3704,
  "\u308c\u3066\u3044": 3705,
  "\u6d41": 3706,
  "\u2581court": 3707,
  "\u2581global": 3708,
  "\u2581project": 3709,
  "\u2581weight": 3710,
  "\u30a2\u30e1\u30ea\u30ab": 3711,
  "\u307b\u3046": 3712,
  "\u2581\u767a\u884c": 3713,
  "\u30c0\u30e1": 3714,
  "\u7570\u306a\u3063": 3715,
  "\u2581con": 3716,
  "\u2581\u8ecd": 3717,
  "\u2581\u4e16\u8a71": 3718,
  "\u2581Never": 3719,
  "\u2581\u3044\u3044\u304b": 3720,
  "\u2581behavior": 3721,
  "\u738b": 3722,
  "\u2581exist": 3723,
  "\u2581impossible": 3724,
  "\u2581claim": 3725,
  "\u2581\u5f93\u9806": 3726,
  "\u2581\u3082\u3057\u304f\u306f": 3727,
  "\u2581\u6b7b\u8005": 3728,
  "\u5b88": 3729,
  "\u2581harmony": 3730,
  "\u2581\u65b0\u805e": 3731,
  "\u2581\u898b\u3048\u308b": 3732,
  "\u3055\u3048": 3733,
  "\u2581\u3055\u305b\u308b": 3734,
  "\u5bc6": 3735,
  "men": 3736,
  "\u2581pioneer": 3737,
  "\u2581connection": 3738,
  "\u2581\u9593\u9055": 3739,
  "\u2581missing": 3740,
  "\u258115.": 3741,
  "\u2581priest": 3742,
  "ter": 3743,
  "\u2581brings": 3744,
  "\u2581England": 3745,
  "\u2581\u516c\u6b63": 3746,
  "\u2581active": 3747,
  "\u2581\u30c0\u30e1": 3748,
  "\u2581Mom": 3749,
  "\u2581\u8840\u6db2": 3750,
  "\u305a\u3063": 3751,
  "\u8cb7\u3063": 3752,
  "\u305f\u304f\u3055\u3093": 3753,
  "\u4eca\u65e5": 3754,
  "\u306a\u3082\u306e": 3755,
  "\u2581watching": 3756,
  "\u2581\u3044\u305a\u308c": 3757,
  "\u2581anger": 3758,
  "\u3093\u304b": 3759,
  "\u2581\u970a\u611f": 3760,
  "\u2581terms": 3761,
  "\u2581thou": 3762,
  "\u2581\u59cb\u307e\u308a": 3763,
  "\u2581\u307f\u5b50": 3764,
  "\u2581thanks": 3765,
  "\u25811,2": 3766,
  "\u53cb\u4eba": 3767,
  "\u2581addition": 3768,
  "\u2581carried": 3769,
  "\u8ffd\u52a0": 3770,
  "50": 3771,
  "\u2581established": 3772,
  "\u2581turns": 3773,
  "\u2581enemy": 3774,
  "\u2581\u4eba\u53e3": 3775,
  "~": 3776,
  "\u2581promises": 3777,
  "\u2581wall": 3778,
  "\u2581\u6226\u3044": 3779,
  "\u2581store": 3780,
  "\u2581\u307b\u3089": 3781,
  "\u2581\u30a2\u30eb\u30b3\u30fc\u30eb": 3782,
  "\u2581\u30e9": 3783,
  "\u2581\u624b\u8853": 3784,
  "\u2581\u7d76\u3048": 3785,
  "\u2581\u7a0b\u5ea6": 3786,
  "\u7136": 3787,
  "\u2581spiritually": 3788,
  "\u2581City": 3789,
  "\u2581\u3055\u308c\u308b": 3790,
  "\u2581\u4e2d\u56fd": 3791,
  "\u3059\u308b\u305f\u3081\u306b": 3792,
  "\u805e\u304d": 3793,
  "\u2581\u5931": 3794,
  "\u8d77": 3795,
  "\u2581station": 3796,
  "\u258117.": 3797,
  "\u2581drinking": 3798,
  "\u2581\u53f8\u796d": 3799,
  "\u2581fulfillment": 3800,
  "\u57fa\u3065\u3044": 3801,
  "\u2581measure": 3802,
  "\u2581appreciation": 3803,
  "\u2581wild": 3804,
  "\u968f": 3805,
  "\u258116.": 3806,
  "\u2581values": 3807,
  "\u2581join": 3808,
  "\u2581progress": 3809,
  "\u2581\u8ad6": 3810,
  "\u2581event": 3811,
  "\u2581foretold": 3812,
  "\u2581surface": 3813,
  "\u2581\u7d50\u8ad6": 3814,
  "\u2581popular": 3815,
  "\u3042\u306e": 3816,
  "\u2581Canada": 3817,
  "\u2581student": 3818,
  "\u2581\u30ce\u30a2": 3819,
  "\u2581observed": 3820,
  "\u2581\u6012\u308a": 3821,
  "\u2581\u6559\u5f92": 3822,
  "\u5168\u90e8": 3823,
  "\u2581\u5bb9\u6613": 3824,
  "\u2581judge": 3825,
  "\u2581square": 3826,
  "\u5f15": 3827,
  "\u2581\u3055\u3055\u3052": 3828,
  "\u2581notice": 3829,
  "\u2581\u4ed5\u3048": 3830,
  "\u771f\u7406": 3831,
  "\u2581Later": 3832,
  "\u2581occasion": 3833,
  "\u2581catch": 3834,
  "\u2581birds": 3835,
  "\u2581mate": 3836,
  "\u2581\u50cd": 3837,
  "\u2581\u6df1\u304f": 3838,
  "\u2581correct": 3839,
  "\u5e97": 3840,
  "\u2581Each": 3841,
  "\u30c3\u30c8": 3842,
  "\u2581destroy": 3843,
  "\u2581\u56fd\u3005": 3844,
  "\u2581\u5831\u3044": 3845,
  "\u2581Any": 3846,
  "\u2581seeking": 3847,
  "\u258190": 3848,
  "\u2581studies": 3849,
  "\u2581window": 3850,
  "\u2581\u7d20\u6674\u3089\u3057\u3044": 3851,
  "\u25818:": 3852,
  "\u2581North": 3853,
  "\u2581protection": 3854,
  "\u2581\u307f\u540d": 3855,
  "\u2581harm": 3856,
  "\u547c": 3857,
  "\u25819:": 3858,
  "\u2581accident": 3859,
  "\u5165": 3860,
  "\u2581amazing": 3861,
  "\u5831": 3862,
  "\u611f": 3863,
  "\u2581500": 3864,
  "\u30b2\u30fc\u30e0": 3865,
  "\u2581\u9032\u6b69": 3866,
  "\u2581note": 3867,
  "\u2581wine": 3868,
  "\u884c\u52d5": 3869,
  "\u2581\u5ba3\u660e": 3870,
  "\u2581\u5ea7": 3871,
  "\u2581\u91cd\u5927": 3872,
  "\u306b\u5bfe\u3059\u308b": 3873,
  "\u611f\u8b1d": 3874,
  "\u2581\u306a\u308c": 3875,
  "\u2581\u9650\u308a": 3876,
  "\u771f": 3877,
  "\u2581\u30d5\u30a1\u30a4\u30eb": 3878,
  "\u2581La": 3879,
  "\u2581\u77f3": 3880,
  "\u670d": 3881,
  "\u2581\u3057\u3070\u3057\u3070": 3882,
  "\u2581fail": 3883,
  "\u2581travel": 3884,
  "if": 3885,
  "\u2581churches": 3886,
  "age": 3887,
  "\u6c0f": 3888,
  "\u2581Hebrews": 3889,
  "\u2581\u5f79\u5272": 3890,
  "tic": 3891,
  "\u2581National": 3892,
  "\u2581\u4efb\u547d": 3893,
  "\u2581\u5ff5": 3894,
  "\u7f8e": 3895,
  "\u258122,": 3896,
  "\u753a": 3897,
  "\u2581mom": 3898,
  "\u2581sky": 3899,
  "\u2581\u305f\u3070\u3053": 3900,
  "\u2581\u5049\u5927": 3901,
  "ad": 3902,
  "\u2581\u552f\u4e00": 3903,
  "\u2581approach": 3904,
  "\u3058": 3905,
  "\u2581#": 3906,
  "\u2581Excuse": 3907,
  "\u2581Sir": 3908,
  "\u30cf": 3909,
  "\u8cea\u554f": 3910,
  "\u25819,": 3911,
  "\u2581victim": 3912,
  "\u30b9\u30c8": 3913,
  "\u8fba": 3914,
  "\u2581\u3064\u3051": 3915,
  "\u2581\u8868\u308f\u3057": 3916,
  "ated": 3917,
  "\u2581Cor": 3918,
  "\u2581plant": 3919,
  "\u754f\u308c": 3920,
  "\u2581army": 3921,
  "\u2581enemies": 3922,
  "ted": 3923,
  "\u2581expected": 3924,
  "\u2581lying": 3925,
  "\u2581charge": 3926,
  "\u30a6": 3927,
  "\u2581aid": 3928,
  "\u2581\u5b98": 3929,
  "\u2581obey": 3930,
  "\u2581talked": 3931,
  "\u2581youth": 3932,
  "\u2581\u7acb\u3066": 3933,
  "\u307f\u308b": 3934,
  "\u2581\u3069\u3046\u3082": 3935,
  "\u2581Surely": 3936,
  "\u2581economic": 3937,
  "\u304b\u3044": 3938,
  "\u2581generation": 3939,
  "\u2581\u304b\u306a\u3063": 3940,
  "\u25816,": 3941,
  "\u2581Show": 3942,
  "\u2581gods": 3943,
  "he": 3944,
  "\u2581\u7740": 3945,
  "\u2581paradise": 3946,
  "\u2581\u3064": 3947,
  "\u2581blind": 3948,
  "\u2581challenge": 3949,
  "\u2581invited": 3950,
  "\u2581\u5927\u62b5": 3951,
  "ance": 3952,
  "\u2581determined": 3953,
  "\u2581mountain": 3954,
  "\u2581\u6587\u66f8": 3955,
  "\u2581existence": 3956,
  "\u2581leading": 3957,
  "lt": 3958,
  "\u2581_": 3959,
  "\u2581\u4e00\u4f53": 3960,
  "\u2581\u6cd5\u5f8b": 3961,
  "\u8a08": 3962,
  "ED": 3963,
  "\u2581national": 3964,
  "\u2581\u30de\u30ea\u30a2": 3965,
  "\u2581parent": 3966,
  "\u2581vision": 3967,
  "\u2581\u3053\u305d": 3968,
  "\u2581OF": 3969,
  "\u308f\u305f\u3063": 3970,
  "\u89e3\u6c7a": 3971,
  "\u3059\u304e": 3972,
  "\u6628\u65e5": 3973,
  "\u2581warm": 3974,
  "\u3052": 3975,
  "\u2581broke": 3976,
  "\u2581\u30bd\u30ed\u30e2\u30f3": 3977,
  "\u2581\u82f1\u8a9e": 3978,
  "\u30b4": 3979,
  "\u72ac": 3980,
  "\u2581\u8c61\u5fb4": 3981,
  "\u90ce": 3982,
  "ite": 3983,
  "\u2581Egypt": 3984,
  "No": 3985,
  "\u2581guide": 3986,
  "\u2581miss": 3987,
  "\u2581\u8a31": 3988,
  "\u2581access": 3989,
  "\u2581produced": 3990,
  "we": 3991,
  "\u2581High": 3992,
  "\u2581international": 3993,
  "\u2581\u7a7a": 3994,
  "\u30ed\u30fc": 3995,
  "\u2581Children": 3996,
  "\u2581\u88c1\u304d": 3997,
  "\u3064\u304f": 3998,
  ">": 3999,
  "\u2581skin": 4000,
  "\u3069\u308c": 4001,
  "\u3066\u304a": 4002,
  "\u2581Put": 4003,
  "\u00b7": 4004,
  "\u2581recorded": 4005,
  "\u2581rules": 4006,
  "ful": 4007,
  "\u2581\u6c7a\u610f": 4008,
  "\u304b\u306d": 4009,
  "ma": 4010,
  "ut": 4011,
  "\u2581win": 4012,
  "\u2581\u7d30\u80de": 4013,
  "\u2581\u81ea\u52d5": 4014,
  "se": 4015,
  "\u2581appropriate": 4016,
  "\u2581\u7acb": 4017,
  "\u2581discovered": 4018,
  "\u2581welcome": 4019,
  "\u2581\u3064\u3044\u306b": 4020,
  "\u6280\u8853": 4021,
  "\u2581\u6b63": 4022,
  "\u2581\u8981\u7d20": 4023,
  "\u30b1": 4024,
  "\u81ea\u7531": 4025,
  "\u2581\u5f37\u529b": 4026,
  "\u2581\u6bce\u5e74": 4027,
  "\u2581\u795e\u8056": 4028,
  "\u9283": 4029,
  "\u2581benefits": 4030,
  "\u2581\u7d71\u6cbb": 4031,
  "\u2581\u53d6\u308a\u4e0a\u3052": 4032,
  "\u2581pro": 4033,
  "\u2581Ask": 4034,
  "\u2581effects": 4035,
  "\u54c1": 4036,
  "\u7523": 4037,
  "\u2581\u884c\u3051": 4038,
  "\u2581bringing": 4039,
  "\u2581deeds": 4040,
  "\u2581\u5927\u3044\u306b": 4041,
  "\u2581Has": 4042,
  "\u3044\u3063\u305f": 4043,
  "\u30ea\u30f3": 4044,
  "\u50b7": 4045,
  "\u2581\u3072\u3069\u3044": 4046,
  "\u2581\u30ab\u30ca\u30c0": 4047,
  "\u5206\u304b\u308a": 4048,
  "\u3042\u308a\u304c\u3068\u3046": 4049,
  "\u2581broken": 4050,
  "\u5f97\u308b": 4051,
  "\u2581Scriptural": 4052,
  "\u2581closer": 4053,
  "\u2581notes": 4054,
  "\u2581design": 4055,
  "\u2581till": 4056,
  "\u8003\u3048\u308b": 4057,
  "\u2581\u51fa\u308b": 4058,
  "\u2581distance": 4059,
  "\u5c0e": 4060,
  "\u51e6": 4061,
  "\u2581convention": 4062,
  "\u30f6": 4063,
  "\u2581\u6307\u793a": 4064,
  "\u2581\u7fa4\u8846": 4065,
  "\u2581\u8aad\u8005": 4066,
  "For": 4067,
  "\u88c5": 4068,
  "\u2581\u5165\u308b": 4069,
  "\u2581\u805e\u304f": 4070,
  "\u258115:": 4071,
  "\u2581\u601d\u3048": 4072,
  "\u2581\u4f5c": 4073,
  "\u5c4b": 4074,
  "\u2581relative": 4075,
  "\u5922": 4076,
  "\u5e95": 4077,
  "\u2581declared": 4078,
  "\u2581\u8cb4\u91cd": 4079,
  "\u5e74\u9593": 4080,
  "\u2581India": 4081,
  "\u2581\u798f\u97f3": 4082,
  "ize": 4083,
  "\u2581lies": 4084,
  "\u2581sitting": 4085,
  "\u2581killing": 4086,
  "\u660e\u78ba": 4087,
  "\u2581\u751f\u5f92": 4088,
  "\u2581growth": 4089,
  "\u7a0b": 4090,
  "\u2581Sometimes": 4091,
  "\u4f7f\u3044": 4092,
  "\u2581\u30cf": 4093,
  "\u547d\u4ee4": 4094,
  "\u2581\u6240\u6709": 4095,
  "\u306a\u3063\u3066\u3044": 4096,
  "\u30d1": 4097,
  "\u671b": 4098,
  "\u2581\u3042\u3044\u3064": 4099,
  "\u2581praise": 4100,
  "\u2581\u30d1\u30f3": 4101,
  "\u2581creatures": 4102,
  "\u534a": 4103,
  "\u548c": 4104,
  "\u2581placed": 4105,
  "\u2581bodies": 4106,
  "\u2581Am": 4107,
  "\u30ad\u30fc": 4108,
  "\u258124:": 4109,
  "\u2581survive": 4110,
  "for": 4111,
  "\u2581\u5927\u6226": 4112,
  "\u2581\u7fa4\u308c": 4113,
  "\u2581literature": 4114,
  "\u2581\u907f\u3051": 4115,
  "\u2581\u884c\u304b": 4116,
  "\u2581statement": 4117,
  "\u2581\u751f\u304d\u65b9": 4118,
  "\u2581\u898f\u6e96": 4119,
  "ver": 4120,
  "\u2581Love": 4121,
  "\u8fbc\u307f": 4122,
  "\u2581actions": 4123,
  "\u2581\u30a4\u30f3\u30c9": 4124,
  "\u2581\u81ea\u5df1": 4125,
  "\u2581\u7570": 4126,
  "\u2581\u4f5c\u308b": 4127,
  "\u2581\u96e2\u5a5a": 4128,
  "\u2581bank": 4129,
  "\u2581\u5165": 4130,
  "\u2581\u72af\u3057": 4131,
  "\u2581\u9b5a": 4132,
  "\u306d\u3048": 4133,
  "\u2581\u6bba\u4eba": 4134,
  "\u2581\u4e3b\u4eba": 4135,
  "\u2581\u826f\u304f": 4136,
  "\u2581reality": 4137,
  "\u2581increased": 4138,
  "\u4ee4": 4139,
  "like": 4140,
  "\u2581finished": 4141,
  "\u2581\u5efa\u8a2d": 4142,
  "\u6210\u529f": 4143,
  "\u2581\u8fd1\u3044": 4144,
  "\u2581\u9858\u3044": 4145,
  "\u2581privilege": 4146,
  "\u2581\u7a81\u7136": 4147,
  "\u2581nuclear": 4148,
  "\u2581\u6751": 4149,
  "\u2581\u306c": 4150,
  "\u2581\u4e8b\u6545": 4151,
  "\u2581enjoyed": 4152,
  "\u2581scene": 4153,
  "\u305f\u3068": 4154,
  "\u2581doctors": 4155,
  "\u2581\u697d\u5712": 4156,
  "\u2581honest": 4157,
  "\u5728": 4158,
  "\u2581\u5922": 4159,
  "\u5341\u5206": 4160,
  "\u2581leaves": 4161,
  "\u2581\u671b": 4162,
  "\u6c7a\u3057\u3066": 4163,
  "\u2581l": 4164,
  "\u2581practical": 4165,
  "\u6bba\u3057": 4166,
  "\u2581Sure": 4167,
  "\u2581mistake": 4168,
  "\u2581\u5370\u5237": 4169,
  "\u2581\u751f\u547d": 4170,
  "\u2581market": 4171,
  "\u2581village": 4172,
  "\u30bb": 4173,
  "\u2581affect": 4174,
  "\u2581Soon": 4175,
  "\u2581acts": 4176,
  "AR": 4177,
  "\u307f\u3093\u306a": 4178,
  "\u2581Others": 4179,
  "\u2581\u4e8b\u4ef6": 4180,
  "\u2581fill": 4181,
  "\u2581guard": 4182,
  "\u2581School": 4183,
  "\u2581listening": 4184,
  "\u65ad": 4185,
  "\u2581II": 4186,
  "\u5b58\u3058": 4187,
  "\u2581interests": 4188,
  "ating": 4189,
  "\u2581\u306a\u3057": 4190,
  "\u2581\u5c11\u5973": 4191,
  "\u6388\u3051": 4192,
  "\u2581authorities": 4193,
  "\u2581model": 4194,
  "\u2581\u6210\u54e1": 4195,
  "\u2581\u98a8": 4196,
  "\u2581\u6307\u6458": 4197,
  "\u2581Hold": 4198,
  "\u2581\u624b\u6bb5": 4199,
  "\u2581\u306a\u3093\u3066": 4200,
  "\u2581\u6551\u3044": 4201,
  "\u65e5\u306b": 4202,
  "\u2581Rome": 4203,
  "\u2581appears": 4204,
  "\u2581expressed": 4205,
  "\u2581Everything": 4206,
  "\u2581emotional": 4207,
  "\u2581regularly": 4208,
  "\u2581trip": 4209,
  "\u305b\u308b": 4210,
  "\u2581o": 4211,
  "\u5165\u529b": 4212,
  "\u2581\u30aa\u30fc\u30b9\u30c8\u30e9\u30ea\u30a2": 4213,
  "\u547c\u3070": 4214,
  "ig": 4215,
  "\u2581Three": 4216,
  "\u2581Paradise": 4217,
  "\u2581plants": 4218,
  "\u2581Nevertheless": 4219,
  "\u2581battle": 4220,
  "\u2581\u304a\u304f": 4221,
  "\u2581Whatever": 4222,
  "\u4fa1\u5024": 4223,
  "\u2581\u30e1\u30b7\u30a2": 4224,
  "\u2581speed": 4225,
  "\u2581\u3069\u3046\u305e": 4226,
  "\u671b\u307f": 4227,
  "\u2581Something": 4228,
  "\u2581\u306a\u3093\u3068": 4229,
  "\u2581\u56de\u5fa9": 4230,
  "\u2581\u5727\u529b": 4231,
  "et": 4232,
  "\u2581accurate": 4233,
  "\u3073": 4234,
  "\u2581conversation": 4235,
  "\u2581\u6a29\u5229": 4236,
  "eth": 4237,
  "\u2581personality": 4238,
  "\u96e8": 4239,
  "\u2581salvation": 4240,
  "\u2581fighting": 4241,
  "\u50cd": 4242,
  "\u2581boat": 4243,
  "\u2581private": 4244,
  "\u2581Got": 4245,
  "\u30b7\u30e5": 4246,
  "\u2581kinds": 4247,
  "\u2581\u9ad8\u304f": 4248,
  "\u2581West": 4249,
  "\u2581steps": 4250,
  "\u2581\u30d7\u30ed\u30b0\u30e9\u30e0": 4251,
  "\u2581\u5efa\u7269": 4252,
  "\u5c0f\u3055\u306a": 4253,
  "\u2581\u5947\u8de1": 4254,
  "\u2581baptism": 4255,
  "\u2581prevent": 4256,
  "\u2581sounds": 4257,
  "\u3048\u3070": 4258,
  "\u2581\u30a4\u30bf\u30ea\u30a2": 4259,
  "\u305f\u308a": 4260,
  "12": 4261,
  "\u2581British": 4262,
  "\u2581Red": 4263,
  "ah": 4264,
  "\u2581designed": 4265,
  "\u2581terrible": 4266,
  "\u2581\u897f": 4267,
  "\u2581\u6301\u3061": 4268,
  "\u2581factor": 4269,
  "\u2581wives": 4270,
  "\u2581merely": 4271,
  "\u2581solution": 4272,
  "\u2581rise": 4273,
  "\u2581unless": 4274,
  "\u50e7\u8077": 4275,
  "\u2581damage": 4276,
  "\u2581song": 4277,
  "\u2581Messiah": 4278,
  "\u30ea\u30f3\u30b0": 4279,
  "\u2581express": 4280,
  "\u2581\u904b\u8ee2": 4281,
  "\u2581forces": 4282,
  "\u3084\u3081": 4283,
  "\u2581slow": 4284,
  "\u2581weapons": 4285,
  "\u5bfe\u3057": 4286,
  "\u30c1\u30fc\u30e0": 4287,
  "\u4ed6": 4288,
  "\u25811970": 4289,
  "\u5b9a": 4290,
  "\u2581\u9152": 4291,
  "\u308f\u304b\u308b": 4292,
  "\u2581Australia": 4293,
  "\u2581\u53e4\u3044": 4294,
  "\u2581\u30aa\u30ec": 4295,
  "ce": 4296,
  "\u2581somewhere": 4297,
  "\u2581\u4eca\u3084": 4298,
  "\u767a\u898b": 4299,
  "\u2581\u6d3e": 4300,
  "\u9003\u3052": 4301,
  "\u2581Last": 4302,
  "\u2581ill": 4303,
  "\u258121:": 4304,
  "\u2581\u5927\u4eba": 4305,
  "\u2581\u6e90": 4306,
  "\u2581decisions": 4307,
  "\u2581series": 4308,
  "\u2581\u56db": 4309,
  "\u2581\u6b7b\u4ea1": 4310,
  "\u80cc": 4311,
  "\u2581chosen": 4312,
  "\u2581respond": 4313,
  "\u2581teachers": 4314,
  "\u2581tribulation": 4315,
  "\u2581\u652f\u3048": 4316,
  "\u2581\u306d\u3048": 4317,
  "\u307e\u307e": 4318,
  "\u2581\u3057\u3070\u3089\u304f": 4319,
  "\u2581\u30a4": 4320,
  "\u2581TO": 4321,
  "\u3066\u304d": 4322,
  "\u308b\u3053\u3068\u304c": 4323,
  "\u2581victims": 4324,
  "\u2581spoken": 4325,
  "\u2581\u88ab\u5bb3": 4326,
  "\u2581\u7d50\u5c40": 4327,
  "\u2581\u9003\u3052": 4328,
  "\u2581below": 4329,
  "\u2581coffee": 4330,
  "\u2581\u5f37\u8abf": 4331,
  "\u304c\u3044": 4332,
  "\u3057\u3044": 4333,
  "\u2581\u7f6e\u304b": 4334,
  "\u2581\u58c1": 4335,
  "\u2581\u6559\u6388": 4336,
  "\u30cb\u30fc": 4337,
  "\u968a": 4338,
  "\u2581godly": 4339,
  "\u2581\u5354\u529b": 4340,
  "\u2581raise": 4341,
  "\u2581\u65c5": 4342,
  "\u2581\u6620\u753b": 4343,
  "\u2581East": 4344,
  "\u2581holding": 4345,
  "\u304f\u305d": 4346,
  "\u2581quick": 4347,
  "\u7d14": 4348,
  "\u2581\u30a8\u30cd\u30eb\u30ae\u30fc": 4349,
  "\u2581\u5927\u534a": 4350,
  "\u25812,000": 4351,
  "\u2581\u610f\u8b58": 4352,
  "\u2581\u544a\u3052": 4353,
  "\u75c5": 4354,
  "\u30b7\u30fc": 4355,
  "\u8abf": 4356,
  "\u2581\u4f1d\u3048\u308b": 4357,
  "\u2581stupid": 4358,
  "\u2581\u907f\u3051\u308b": 4359,
  "\u2581China": 4360,
  "\u2581Other": 4361,
  "\u4f5c\u308a": 4362,
  "\u9031": 4363,
  "\u2581Eve": 4364,
  "\u2581solve": 4365,
  "\u2581\u54c1": 4366,
  "\u8cea": 4367,
  "\u2581Um": 4368,
  "\u258117:": 4369,
  "\u72af": 4370,
  "\u2581decide": 4371,
  "\u2581successful": 4372,
  "\u89aa": 4373,
  "\u2581\u4e8b\u52d9": 4374,
  "\u2581\u72ac": 4375,
  "\u2581\u5927\u3044\u306a\u308b": 4376,
  "\u2581\u656c\u8654": 4377,
  "\u2581\u697d\u3057": 4378,
  "\u2581\u8208\u5473\u6df1\u3044": 4379,
  "\u2581\u305f\u3076\u3093": 4380,
  "\u7fa9": 4381,
  "\u2581moon": 4382,
  "\u2581\u6839": 4383,
  "\u2581pattern": 4384,
  "\u6642\u4ee3": 4385,
  "ol": 4386,
  "\u2581pull": 4387,
  "\u2581\u6050\u3089\u304f": 4388,
  "\u3082\u306e\u3067": 4389,
  "\u5f93": 4390,
  "\u2581dedicated": 4391,
  "\u2581loyal": 4392,
  "\u2581teachings": 4393,
  "\u2581seriously": 4394,
  "hat": 4395,
  "\u8a08\u7b97": 4396,
  "\u3068\u306a\u308a": 4397,
  "\u2581\u30c9\u30a2": 4398,
  "\u8056\u66f8": 4399,
  "!\"": 4400,
  "\u2581precious": 4401,
  "\u3068\u8003\u3048": 4402,
  "\u9aa8": 4403,
  "\u77e5\u308b": 4404,
  "\u2581Sam": 4405,
  "\u2581desires": 4406,
  "\u2581ex": 4407,
  "\u2581sacred": 4408,
  "\u2581forgive": 4409,
  "\u2581\u6700\u5584": 4410,
  "\u25aa": 4411,
  "\u751f\u307e\u308c": 4412,
  "\u2581\u53f3": 4413,
  "\u623b\u308b": 4414,
  "\u2581belief": 4415,
  "\u2581\u6b69\u307f": 4416,
  "\u2581\u4e2d\u5fc3": 4417,
  "\u2581grew": 4418,
  "\u2581remains": 4419,
  "\u2581carefully": 4420,
  "\u2581finding": 4421,
  "\u2581systems": 4422,
  "\u2581memory": 4423,
  "\u2581\u306f\u3058\u3081": 4424,
  "\u2581importance": 4425,
  "\u2581manner": 4426,
  "\u2581patients": 4427,
  "\u2581\u5931\u6557": 4428,
  "\u2581Christianity": 4429,
  "\u2581drop": 4430,
  "\u2581provides": 4431,
  "\u30ed\u30f3": 4432,
  "\u2581continues": 4433,
  "\u2581legal": 4434,
  "\u2581\u62b1\u304f": 4435,
  "\u2581\u7279\u5b9a": 4436,
  "ble": 4437,
  "\u2581\u7d50": 4438,
  "\u30ac\u30f3": 4439,
  "\u266b": 4440,
  "\u2581discipline": 4441,
  "\u2581fault": 4442,
  "\u2581fit": 4443,
  "\u2581\u652f\u90e8": 4444,
  "\u3092\u884c\u3046": 4445,
  "\u2581sell": 4446,
  "\u2581anybody": 4447,
  "\u2581specific": 4448,
  "\u8a18": 4449,
  "City": 4450,
  "\u2581elder": 4451,
  "\u2581\u3055\u307e\u3056\u307e": 4452,
  "\u5553": 4453,
  "\u2581display": 4454,
  "\u2581State": 4455,
  "\u2581writer": 4456,
  "\u5225\u306e": 4457,
  "\u7814\u7a76": 4458,
  "\u2581river": 4459,
  "\u2581wealth": 4460,
  "\u2581\u8d64\u3061\u3083\u3093": 4461,
  "\u2581summer": 4462,
  "\u2581\u3061\u3087\u3046\u3069": 4463,
  "\u2581\u4f59": 4464,
  "\u2581\u958b": 4465,
  "\u2581\u5e73\u5747": 4466,
  "\u2581development": 4467,
  "\u2581shut": 4468,
  "Jehovah": 4469,
  "\u2581\u4fdd": 4470,
  "\u2581\u53ce": 4471,
  "\u306e\u304a": 4472,
  "\u2581suddenly": 4473,
  "\u2581\u30b5\u30e0\u30a8\u30eb": 4474,
  "\u2581\u671d": 4475,
  "\u2581heads": 4476,
  "\u2581cross": 4477,
  "\u2581lady": 4478,
  "\u2581gas": 4479,
  "\u30e1": 4480,
  "\u2581\u30a8\u30bc\u30ad\u30a8\u30eb": 4481,
  "\u2581conclusion": 4482,
  "\u2581direct": 4483,
  "\u306e\u4e0b": 4484,
  "\u2581\u8a18\u5ff5": 4485,
  "\u7acb\u3066": 4486,
  "\u2581\u5165\u308a": 4487,
  "\u6050\u308c": 4488,
  "\u2581\u304a\u305d\u3089\u304f": 4489,
  "\u2581starting": 4490,
  "\u258110,": 4491,
  "\u2581Stay": 4492,
  "\u2581dinner": 4493,
  "\u7a4d": 4494,
  "\u2581answered": 4495,
  "\u2581cry": 4496,
  "\u2581dear": 4497,
  "\u2581\u8b19\u905c": 4498,
  "\u500b": 4499,
  "\u2581herself": 4500,
  "\u2581DNA": 4501,
  "\u2581wear": 4502,
  "\u8868\u793a": 4503,
  "\u2581directly": 4504,
  "\u2581Con": 4505,
  "\u2581rock": 4506,
  "\u2581\u9069\u5207": 4507,
  "\u3084\u308a": 4508,
  "*": 4509,
  "\u2581\u751f\u3058\u308b": 4510,
  "\u2581\u307b\u3093\u3068": 4511,
  "\u5553\u793a": 4512,
  "\u258118.": 4513,
  "\u25817,": 4514,
  "\u2581\u305f\u3044\u3066\u3044": 4515,
  "40": 4516,
  "\u2581focus": 4517,
  "\u2581\u9032\u5316": 4518,
  "\u2581African": 4519,
  "\u2581mountains": 4520,
  "\u2581\u9054\u3057": 4521,
  "\u4f5c\u308b": 4522,
  "\u2581apart": 4523,
  "\u9b54": 4524,
  "\u2581famous": 4525,
  "\u2581stars": 4526,
  "\u2581strange": 4527,
  "\u2581ice": 4528,
  "\u3057\u304f": 4529,
  "\u2581anyway": 4530,
  "\u2581\u96e8": 4531,
  "\u3053\u308c\u3089\u306e": 4532,
  "\u2581Finally": 4533,
  "\u2581neighbor": 4534,
  "\u2581radio": 4535,
  "\u2581suffered": 4536,
  "\u2581\u4f8b\u3048": 4537,
  "land": 4538,
  "\u2581Jack": 4539,
  "\u2581Mother": 4540,
  "\u2581ransom": 4541,
  "\u7d42\u308f": 4542,
  "\u2581bus": 4543,
  "\u2581feels": 4544,
  "\u7530": 4545,
  "\u2581forms": 4546,
  "\u2581\u3089": 4547,
  "\u2581\u52c9\u5f37": 4548,
  "ci": 4549,
  "da": 4550,
  "\u30dc": 4551,
  "\u65e9\u304f": 4552,
  "\u2581angel": 4553,
  "\u2581lower": 4554,
  "\u2581occur": 4555,
  "\u898b\u3064\u304b": 4556,
  "\u2581\u98df\u3079\u308b": 4557,
  "\u793e": 4558,
  "\u2581treat": 4559,
  "\u2581\u6559\u5e2b": 4560,
  "\u2581\u6ec5\u3073": 4561,
  "\u2581\u898f\u6a21": 4562,
  "\u8fbc": 4563,
  "\u2581\u75db\u307f": 4564,
  "\u2581\u5c11\u5e74": 4565,
  "\u2581clothes": 4566,
  "\u2581\u52d5\u304b": 4567,
  "\u304b\u3089\u3060": 4568,
  "\u2581facts": 4569,
  "\u2581heat": 4570,
  "\u2581limited": 4571,
  "\u2581preach": 4572,
  "\u2581Read": 4573,
  "\u5275\u9020": 4574,
  "\u5b8c\u5168": 4575,
  "\u2581\u6c5a\u67d3": 4576,
  "\u2581\u76f4\u63a5": 4577,
  "\u2581\u3057\u308b\u3057": 4578,
  "\u500d": 4579,
  "\u2581k": 4580,
  "\u2581\u6559\u8a13": 4581,
  "\u2581dis": 4582,
  "\u2581property": 4583,
  "\u2212": 4584,
  "\u72b6": 4585,
  "\u2581empty": 4586,
  "\u2581\u5ba3\u3079\u4f1d\u3048": 4587,
  "\u2581\u5e2b": 4588,
  "\u4f4f\u3093": 4589,
  "\u2581traveling": 4590,
  "\u2581issues": 4591,
  "\u2581lines": 4592,
  "\u2581plane": 4593,
  "\u2581television": 4594,
  "our": 4595,
  "\u2581servant": 4596,
  "\u2581twice": 4597,
  "\u2581\u91ce": 4598,
  "\u5104": 4599,
  "\u78ba\u7387": 4600,
  "\u2581quiet": 4601,
  "\u2581Jacob": 4602,
  "\u3078\u3093": 4603,
  "\u2581garden": 4604,
  "\u2581\u3054\u304f": 4605,
  "\u2581easier": 4606,
  "\u2581\u5730\u65b9": 4607,
  "\u2581operation": 4608,
  "\u5c45\u308b": 4609,
  "\u843d\u3061": 4610,
  "\u2581tired": 4611,
  "\u2581\u6975\u3081\u3066": 4612,
  "\u2581\u8a95\u751f": 4613,
  "\u5b89": 4614,
  "\u60c5\u5831": 4615,
  "\u2581uses": 4616,
  "\u2581\u59ff": 4617,
  "\u2581\u79fb\u52d5": 4618,
  "\u308c\u3066\u3044\u308b": 4619,
  "\u6e21": 4620,
  "\u2581Christmas": 4621,
  "\u2581pictures": 4622,
  "\u2581smoking": 4623,
  "\u3068\u306a\u308b": 4624,
  "\u2581Think": 4625,
  "\u2581taste": 4626,
  "\u2581zero": 4627,
  "\u7d9a": 4628,
  "\u2581Young": 4629,
  "\u2581\u671f": 4630,
  "\u2581count": 4631,
  "\u2581deeply": 4632,
  "\u2581foreign": 4633,
  "\u2581stress": 4634,
  "ster": 4635,
  "\u258114:": 4636,
  "\u2581beauty": 4637,
  "\u5cf6": 4638,
  "\u2581affected": 4639,
  "\u2581covered": 4640,
  "\u2581\u8a66\u307f": 4641,
  "\u3044\u305f\u3089": 4642,
  "\u2581Among": 4643,
  "\u2581severe": 4644,
  "\u2581star": 4645,
  "\u2581stories": 4646,
  "\u2581supply": 4647,
  "\u6307\u5b9a": 4648,
  "\u8a18\u9332": 4649,
  "\u826f\u304f": 4650,
  "\u2581Actually": 4651,
  "\u2581yesterday": 4652,
  "\u2581hide": 4653,
  "\u00e9": 4654,
  "\u2581()": 4655,
  "\u3069\u3046\u3057\u3066": 4656,
  "\u2581dying": 4657,
  "\u2581seed": 4658,
  "\u2581\u611f\u67d3": 4659,
  "\u2581\u30af\u30bd": 4660,
  "\u3089\u3057\u3044": 4661,
  "\u2581bread": 4662,
  "\u5168\u4f53": 4663,
  "\u2581\u8f38\u8840": 4664,
  "\u8b66\u544a": 4665,
  "\u258142": 4666,
  "\u2581\u6e80\u3061": 4667,
  "\u2581\u571f": 4668,
  "\u2581surprise": 4669,
  "\u2581\u6b63\u3057\u304f": 4670,
  "\u2581bar": 4671,
  "\u2581\u533b\u7642": 4672,
  "this": 4673,
  "\u2581+": 4674,
  "\u25818)": 4675,
  "\u77f3": 4676,
  "\u2581Saul": 4677,
  "\u2581Sea": 4678,
  "\u2581\u30d5\u30a3\u30ea\u30d4": 4679,
  "\u2581Everyone": 4680,
  "\u2581base": 4681,
  "\u2581experiences": 4682,
  "\u5bdd": 4683,
  "\u2581minds": 4684,
  "\u2581letters": 4685,
  "\u5b9a\u3081": 4686,
  "\u2581response": 4687,
  "\u2581feed": 4688,
  "\u4e0e\u3048\u3089\u308c": 4689,
  "\u591a": 4690,
  "11": 4691,
  "\u2581angry": 4692,
  "\u306e\u554f\u984c": 4693,
  "\u8179": 4694,
  "\u9078": 4695,
  "\u2581bought": 4696,
  "\u2581integrity": 4697,
  "\u8cb4": 4698,
  "\u2581Use": 4699,
  "\u2581\u4e0d\u5b89": 4700,
  "\u5ddd": 4701,
  "\u2581\u6211": 4702,
  "\u5275": 4703,
  "\u258165": 4704,
  "\u2581pure": 4705,
  "\u2581Move": 4706,
  "\u2581\u5897\u3048": 4707,
  "\u2581male": 4708,
  "\u56fa": 4709,
  "\u2581pieces": 4710,
  "\u25a0": 4711,
  "\u25813)": 4712,
  "\u2581\u672a": 4713,
  "\u2581contrast": 4714,
  "\u2581\u518a": 4715,
  "\u2581\u4e00\u65e5": 4716,
  "so": 4717,
  "\u2581\u8abf\u548c": 4718,
  "\u2581north": 4719,
  "\u6b69": 4720,
  "\u2581ma": 4721,
  "\u2581\u3044\u308c": 4722,
  "\u258148": 4723,
  "\u3044\u3044\u304b": 4724,
  "\u2581complex": 4725,
  "\u2581\u3044\u307e": 4726,
  "\u2581refused": 4727,
  "\u2581persecution": 4728,
  "\u2581\u533b": 4729,
  "\u2581Lo": 4730,
  "\u60c5\u5831\u3092": 4731,
  "\u2581\u4e00\u4eba": 4732,
  "\u2581encouraged": 4733,
  "\u304a\u308a": 4734,
  "\u4ed8": 4735,
  "\u2581unique": 4736,
  "\u7121\u7406": 4737,
  "\u9996": 4738,
  "\u3063\u305f\u308a": 4739,
  "\u2581h": 4740,
  "\u2581\u5371\u6a5f": 4741,
  "\u3044\u304f": 4742,
  "\u2581master": 4743,
  "\u2581\u601d\u3048\u308b": 4744,
  "\u304a\u3046": 4745,
  "\u2581advantage": 4746,
  "\u2581\u5f15": 4747,
  "\u2581dealing": 4748,
  "\u2581fly": 4749,
  "\u2581scale": 4750,
  "\u2581\u8a66\u7df4": 4751,
  "\u7d4c\u9a13": 4752,
  "\u2581manifest": 4753,
  "\u2581setting": 4754,
  "\u2581\u6709\u540d": 4755,
  "\u2581fulfilled": 4756,
  "\u2581powers": 4757,
  "\u2581\u518d": 4758,
  "\u2581\u89e3\u653e": 4759,
  "\u6700\u9ad8": 4760,
  "\u5175": 4761,
  "\u76ee\u7684": 4762,
  "My": 4763,
  "\u30b3\u30f3": 4764,
  "\u805e\u304f": 4765,
  "\u2581principle": 4766,
  "\u2581shoot": 4767,
  "\u2581lay": 4768,
  "\u2581smoke": 4769,
  "\u2581location": 4770,
  "\u2581site": 4771,
  "\u2581\u53c2\u7167": 4772,
  "\u2581\u8868\u308f\u3059": 4773,
  "\u9650": 4774,
  "\u2581\u8cdb\u7f8e": 4775,
  "\u307b\u3057\u3044": 4776,
  "\u2581Sunday": 4777,
  "\u2581\u52b1\u307e\u3057": 4778,
  "\u25811)": 4779,
  "\u2581totally": 4780,
  "\u2581\u7d42\u308f": 4781,
  "\u914d\u5076": 4782,
  "\u2581\u6587\u5b57": 4783,
  "\u2581\u8fd1\u3065": 4784,
  "\u78ba\u304b": 4785,
  "\u2581Nations": 4786,
  "\u2581Open": 4787,
  "\u2581relief": 4788,
  "\u2581\u5229": 4789,
  "\u2581surprised": 4790,
  "\u2581Ma": 4791,
  "\u2581ended": 4792,
  "\u2581missionary": 4793,
  "\u2581appeared": 4794,
  "\u2581\u52dd\u5229": 4795,
  "\u2581opening": 4796,
  "\u2581\u533b\u5b66": 4797,
  "\u2581beat": 4798,
  "\u2581hey": 4799,
  "\u2581\u8003\u3048\u65b9": 4800,
  "\u2581\u51fa\u30a8\u30b8\u30d7\u30c8": 4801,
  "\u2581abuse": 4802,
  "\u2581\u63d0\u4f9b": 4803,
  "\u2581Moreover": 4804,
  "\u3092\u6301\u3064": 4805,
  "\u30d3\u30c7\u30aa": 4806,
  "\u2581\u52c7\u6c17": 4807,
  "\u6c17\u304c": 4808,
  "\u2581arms": 4809,
  "\u2581\u3044\u304f": 4810,
  "\u30b9\u30bf\u30fc": 4811,
  "\u77e5\u3089\u305b": 4812,
  "\u2581\u8ff0\u3079\u308b": 4813,
  "\u2581\u9ed9": 4814,
  "\u30ca\u30fc": 4815,
  "\u535a\u58eb": 4816,
  "\u6bba\u4eba": 4817,
  "\u2581twenty": 4818,
  "\u2581\u56f0\u96e3": 4819,
  "\u9177": 4820,
  "\u2581weather": 4821,
  "\u2581useful": 4822,
  "\u8a33": 4823,
  "\u2581finish": 4824,
  "\u2581\u3069\u3046\u304b": 4825,
  "\u2581\u697d\u3057\u307f": 4826,
  "\u2581Without": 4827,
  "\u2581included": 4828,
  "\u2581requires": 4829,
  "\u2581anywhere": 4830,
  "\u2581theory": 4831,
  "\u2581\u4fdd\u8a3c": 4832,
  "\u2581\u5fdc\u3058": 4833,
  "\u2581\u8857": 4834,
  "\u2581\u52d9\u3081": 4835,
  "\u2581grown": 4836,
  "\u2581\u80f8": 4837,
  "\u2581entered": 4838,
  "\u2581range": 4839,
  "\u2581\u591a\u6570": 4840,
  "\u7387": 4841,
  "\u8aad\u307f": 4842,
  "\u2581\u901a\u4fe1": 4843,
  "\u2581sweet": 4844,
  "\u2581\u5065\u5168": 4845,
  "\u4e21": 4846,
  "\u2581\u6368\u3066": 4847,
  "\u2581\u6570\u591a\u304f": 4848,
  "\u3067\u3042\u308b\u3053\u3068": 4849,
  "\u306a\u305c": 4850,
  "\u2581\u30ac\u30f3": 4851,
  "\u2581\u670d": 4852,
  "\u2581mass": 4853,
  "\u2581official": 4854,
  "\u308f\u304c": 4855,
  "\u2581\u5de8": 4856,
  "\u756a\u53f7": 4857,
  "\u8fd1\u304f": 4858,
  "\u2581constant": 4859,
  "\u2581turning": 4860,
  "\u2581\u30a8\u30d0": 4861,
  "\u8033": 4862,
  "time": 4863,
  "\u2581warned": 4864,
  "\u2581\u305d\u306e\u3082\u306e": 4865,
  "\u2581journey": 4866,
  "\u2581\u6a5f\u95a2": 4867,
  "\u4f4d\u7f6e": 4868,
  "ence": 4869,
  "\u2581violent": 4870,
  "\u2581Under": 4871,
  "Let": 4872,
  "\u8089": 4873,
  "\u2581behalf": 4874,
  "\u6669": 4875,
  "\u6c7a\u3081": 4876,
  "\u2581despite": 4877,
  "\u3044\u3066\u3044": 4878,
  "\u79d2": 4879,
  "\u2581grand": 4880,
  "\u307b\u3068\u3093\u3069": 4881,
  "\u8857": 4882,
  "\u9ad8\u3044": 4883,
  "\u2581visited": 4884,
  "\u2581theme": 4885,
  "\u2581failure": 4886,
  "os": 4887,
  "\u2581effective": 4888,
  "\u2581\u5f79\u7acb\u3064": 4889,
  "\u2581sad": 4890,
  "\u2581\u30b5\u30e9": 4891,
  "\u5144\u5f1f": 4892,
  "\u2581darkness": 4893,
  "\u2581\u5316\u5b66": 4894,
  "\u2581\u6a29": 4895,
  "\u2581sides": 4896,
  "\u2581divorce": 4897,
  "\u2581alcohol": 4898,
  "\u2581Fire": 4899,
  "\u305d\u308c\u306b": 4900,
  "\u258114,": 4901,
  "\u2581\u308f\u304b\u308a": 4902,
  "\u2581\u7121\u8996": 4903,
  "\u2581\u542b\u3081": 4904,
  "\u2581Very": 4905,
  "\u2581driving": 4906,
  "\u2581highly": 4907,
  "\u2581\u304a\u304b\u3052": 4908,
  "\u2581\u5e83\u304f": 4909,
  "\u2581\u6255\u3046": 4910,
  "\u30b3\u30fc\u30c9": 4911,
  "\u99ac": 4912,
  "\u2581\u591a\u5206": 4913,
  "\u3042\u308c": 4914,
  "\u3063\u305f\u3093": 4915,
  "\u2581Chinese": 4916,
  "\u2581assignment": 4917,
  "\u2581bird": 4918,
  "\u2581\u9858": 4919,
  "\u2581Back": 4920,
  "\u2581sold": 4921,
  "\u6b4c": 4922,
  "\u2581forced": 4923,
  "\u2581trial": 4924,
  "\u2581\u3044\u3063\u305d\u3046": 4925,
  "\u2581tongue": 4926,
  "\u2581\u3072\u3068\u3064": 4927,
  "\u89b3": 4928,
  "\u2581\u6838": 4929,
  "\u30e9\u30f3": 4930,
  "\u2581throw": 4931,
  "\u2581\u5bb3": 4932,
  "\u3064\u3044\u3066": 4933,
  "\u258120.": 4934,
  "\u2581\u6771": 4935,
  "\u2581\u5358\u306b": 4936,
  "\u2581\u898b\u305b": 4937,
  "\u3060\u3057": 4938,
  "\u77e5\u8b58": 4939,
  "\u5fa1\u8a31": 4940,
  "There": 4941,
  "\u2581\u7a7a\u6c17": 4942,
  "\u2581\u8ca7\u3057\u3044": 4943,
  "\u306e\u307f": 4944,
  "\u30c9\u30a2": 4945,
  "\u2581\u30ac\u30e9\u30c6\u30a2": 4946,
  "\u2581Captain": 4947,
  "\u2581product": 4948,
  "\u958b\u3051": 4949,
  "ge": 4950,
  "\u5e2b": 4951,
  "ever": 4952,
  "\u2581assembly": 4953,
  "\u2581kings": 4954,
  "\u753b": 4955,
  "\u2581associated": 4956,
  "\u2581psalmist": 4957,
  "\u2581round": 4958,
  "\u2581\u805e\u3053\u3048": 4959,
  "\u8d70": 4960,
  "\u9b42": 4961,
  "\u2581extent": 4962,
  "\u2581luck": 4963,
  "\u2581\u30b5": 4964,
  "000": 4965,
  "\u2581games": 4966,
  "\u2581stick": 4967,
  "ba": 4968,
  "\u5165\u308b": 4969,
  "\u4ed8\u304d": 4970,
  "\u2581remove": 4971,
  "\u8133": 4972,
  "\u2581blessed": 4973,
  "\u2581occurred": 4974,
  "00": 4975,
  "\u2581ruin": 4976,
  "\u2581practices": 4977,
  "\u5b88\u308b": 4978,
  "\u2581purposes": 4979,
  "\u2581\u5f53\u5c40": 4980,
  "\u2581belong": 4981,
  "\u2581style": 4982,
  "\u2581\u578b": 4983,
  "\u2581bottom": 4984,
  "\u304a\u304f": 4985,
  "\u2581\u30b3\u30ed\u30b5\u30a4": 4986,
  "\u2581devotion": 4987,
  "ler": 4988,
  "\u2581waste": 4989,
  "\u2581\u6cb9": 4990,
  "\u2581\u547d\u3058": 4991,
  "\u2581\u7121\u7406": 4992,
  "\u2581blame": 4993,
  "\u2581mention": 4994,
  "\u2581valuable": 4995,
  "ner": 4996,
  "\u2581proud": 4997,
  "\u2581\u4ee3\u8868": 4998,
  "\u2581\u5de6": 4999,
  "\u2581factors": 5000,
  "\u25815,000": 5001,
  "\u2581camp": 5002,
  "\u2581publication": 5003,
  "\u2581Through": 5004,
  "\u2581sharing": 5005,
  "\u3086\u3063\u304f\u308a": 5006,
  "\u609f": 5007,
  "\u2581beliefs": 5008,
  "\u2581\u30b3": 5009,
  "\u2581\u5ba2": 5010,
  "\u73fe\u5728": 5011,
  "?)": 5012,
  "\u2581houses": 5013,
  "\u2581innocent": 5014,
  "\u2581\u5fe0\u8aa0": 5015,
  "\u5b9a\u7fa9": 5016,
  "\u898b\u3064\u3051\u308b": 5017,
  "\u2581length": 5018,
  "\u2581walked": 5019,
  "\u7d20\u6674\u3089\u3057\u3044": 5020,
  "\u8cac\u4efb": 5021,
  "\u2581capital": 5022,
  "ex": 5023,
  "\u2581400": 5024,
  "\u2581Mo": 5025,
  "\u2581encourage": 5026,
  "\u2581seconds": 5027,
  "\u2581keeps": 5028,
  "\u2581larger": 5029,
  "\u2581trade": 5030,
  "\u2581\u7de8": 5031,
  "\u2581\u9023\u7d61": 5032,
  "\u597d": 5033,
  "\u2581guilty": 5034,
  "\u2581\u3084\u3059\u3044": 5035,
  "\u25819)": 5036,
  "\u2581\u8aa0\u5b9f": 5037,
  "\u2581\u975e\u96e3": 5038,
  "\u3067\u3042\u308b\u3068": 5039,
  "\u4e0e\u3048\u308b": 5040,
  "\u2581Mrs": 5041,
  "\u2581\u624b\u672c": 5042,
  "\u2581\u751f\u7523": 5043,
  "\u304d\u3066": 5044,
  "old": 5045,
  "\u2581courage": 5046,
  "\u2581\u52b4\u50cd": 5047,
  "\u2581Next": 5048,
  "\u8996": 5049,
  "\u2581fair": 5050,
  "\u5712": 5051,
  "\u2581Someone": 5052,
  "\u307e\u308c": 5053,
  "\u2581Ben": 5054,
  "\u2581proof": 5055,
  "great": 5056,
  "\u2581damn": 5057,
  "\u2581News": 5058,
  "\u2581\u4ee3\u308f\u308a": 5059,
  "\u5171\u540c": 5060,
  "\u8a00\u3044\u307e": 5061,
  "\u2581endure": 5062,
  "\u2581\u307b\u307c": 5063,
  "\u2581developing": 5064,
  "\u4f3c": 5065,
  "\u2581\u30cf\u30a4": 5066,
  "\u53f0": 5067,
  "\u2581files": 5068,
  "\u2581images": 5069,
  "\u5668": 5070,
  "\u6620\u753b": 5071,
  "\u2581scientific": 5072,
  "\u2581\u5618": 5073,
  "\u30bb\u30eb": 5074,
  "\u2581stone": 5075,
  "\u8fd1": 5076,
  "ally": 5077,
  "by": 5078,
  "\u25815)": 5079,
  "\u2581greatly": 5080,
  "\u2581squared": 5081,
  "\u2581\u611b\u60c5": 5082,
  "\u524a\u9664": 5083,
  "\u30b8\u30e3": 5084,
  "\u30de\u30fc": 5085,
  "\u592b": 5086,
  "\u2581genuine": 5087,
  "\u2581understood": 5088,
  "\u2581observe": 5089,
  "\u606f": 5090,
  "\u2581unity": 5091,
  "\u2581\u76f8": 5092,
  "\u2581\u30a2\u30eb": 5093,
  "\u2581\u7ba1\u7406": 5094,
  "\u2581household": 5095,
  "\u2581personally": 5096,
  "\u2581\u30d6\u30e9\u30b8\u30eb": 5097,
  "\u89d2": 5098,
  "\u2581\u3064\u308c": 5099,
  "\u2581\u5916\u56fd": 5100,
  "\u2581scared": 5101,
  "\u2581\u8907\u96d1": 5102,
  "\u2581\u8a55\u4fa1": 5103,
  "\u985e": 5104,
  "\u2581standard": 5105,
  "\u2581wars": 5106,
  "\u2581press": 5107,
  "\u2581separate": 5108,
  "\u2581\u6c17\u5206": 5109,
  "\u60aa\u9b54": 5110,
  "\u2581\u6b66\u5668": 5111,
  "\u2581\u8a2d\u3051": 5112,
  ":\"": 5113,
  "\u2581carrying": 5114,
  "\u258111,": 5115,
  "\u2581religions": 5116,
  "\u2581ride": 5117,
  "\u2581\u30ed\u30f3\u30c9\u30f3": 5118,
  "\u2581\u500b": 5119,
  "\u53bb\u3063": 5120,
  "\u2581adds": 5121,
  "\u2581everywhere": 5122,
  "\u2581mere": 5123,
  "\u2581nobody": 5124,
  "\u2581\u5909": 5125,
  "\u2581threat": 5126,
  "line": 5127,
  "li": 5128,
  "\u2581assigned": 5129,
  "\u2581\u6669": 5130,
  "\u76f8": 5131,
  "\u58c1": 5132,
  "\u2581discuss": 5133,
  "\u2581flight": 5134,
  "\u2581\u5358\u306a\u308b": 5135,
  "\u2581\u4ef6": 5136,
  "\u2581appearance": 5137,
  "\u2581\u3059\u3054\u3044": 5138,
  "\u6ce8\u610f": 5139,
  "\u2581arm": 5140,
  "\u2581request": 5141,
  "\u2581translation": 5142,
  "\u2581\u5272\u308a\u5f53\u3066": 5143,
  "\u2581Out": 5144,
  "\u2581\u5e30\u3063": 5145,
  "\u639b\u3051": 5146,
  "ak": 5147,
  "\u653b\u6483": 5148,
  "\u2581method": 5149,
  "\u5168\u304f": 5150,
  "^": 5151,
  "\u2581\u4e09\u3064": 5152,
  "\u2581YOU": 5153,
  "\u2581convinced": 5154,
  "\u2581\u9759\u304b": 5155,
  "\u2581\u53ce\u3081": 5156,
  "\u2581Miss": 5157,
  "\u2581double": 5158,
  "\u258118:": 5159,
  "\u2581credit": 5160,
  "\u914d": 5161,
  "\u2581dress": 5162,
  "\u30d1\u30b9": 5163,
  "fo": 5164,
  "\u2581killer": 5165,
  "\u2581\u7f6e\u3044": 5166,
  "\u3064\u304b": 5167,
  "\u2581contains": 5168,
  "\u2581forest": 5169,
  "\u2581potential": 5170,
  "\u2581\u6bd4\u3079": 5171,
  "\u5411\u3051": 5172,
  "\u6709\u52b9": 5173,
  "ac": 5174,
  "\u2581task": 5175,
  "\u2581stage": 5176,
  "\u30c3\u30af": 5177,
  "\u2581Similarly": 5178,
  "\u2581committed": 5179,
  "\u3069": 5180,
  "\u6559": 5181,
  "\u2581\u653e": 5182,
  "que": 5183,
  "\u2581\u3054\u3081\u3093": 5184,
  "\u2581\u3072": 5185,
  "\u2581indicate": 5186,
  "\u5fc3\u3092": 5187,
  "\u2581extra": 5188,
  "\u2581\u7d9a": 5189,
  "\u2581Judah": 5190,
  "\u2581female": 5191,
  "\u2581\u547c": 5192,
  "\u2581meal": 5193,
  "\u3059\u304e\u308b": 5194,
  "\u2581bitch": 5195,
  "\u6c38\u9060": 5196,
  "\u2581\u5668": 5197,
  "\u2581\u6d2a\u6c34": 5198,
  "\u2581\u79e9\u5e8f": 5199,
  "\u2581\u7d9a\u304f": 5200,
  "\u306a\u3055\u308c\u308b": 5201,
  "\u258112)": 5202,
  "\u2581Agent": 5203,
  "\u2581\u307e\u308b\u3067": 5204,
  "\u2581\u697d\u3057\u3044": 5205,
  "\u53ea": 5206,
  "\u2581details": 5207,
  "\u2581\u5144": 5208,
  "\u5f71\u97ff": 5209,
  "\u2581consequences": 5210,
  "\u82b1": 5211,
  "\u2581perform": 5212,
  "\u2581\u3084\u306f\u308a": 5213,
  "\u2581\u50cf": 5214,
  "\u258155": 5215,
  "\u2581pointed": 5216,
  "\u2581Mount": 5217,
  "\u2581financial": 5218,
  "\u2581college": 5219,
  "\u2581chief": 5220,
  "\u2581plans": 5221,
  "\u2581\u5143\u6c17": 5222,
  "\u2581\u5e1d\u56fd": 5223,
  "\u2581\u99ac": 5224,
  "\u5927\u5b66": 5225,
  "\u2581milk": 5226,
  "\u2581\u30b2\u30fc\u30e0": 5227,
  "\u2581\u53d6\u308a\u6c7a\u3081": 5228,
  "\u258121.": 5229,
  "\u5929\u4f7f": 5230,
  "\u73fe": 5231,
  "\u2581\u51b7": 5232,
  "\u2581familiar": 5233,
  "ists": 5234,
  "\u2581\u76f8\u5f53": 5235,
  "\u2581increasing": 5236,
  "\u5909\u5316": 5237,
  "\u2581reasonable": 5238,
  "\u5168\u80fd": 5239,
  "\u258143": 5240,
  "\u5408\u3046": 5241,
  "end": 5242,
  "\u2581Ex": 5243,
  "\u2581generally": 5244,
  "\u2581root": 5245,
  "\u2581\u8853": 5246,
  "\u2581\u96c6\u3081": 5247,
  "\u2581governments": 5248,
  "\u2581improve": 5249,
  "\u30c7\u30fc\u30bf": 5250,
  "\u30d9\u30eb": 5251,
  "\u518d": 5252,
  "\u6d3b\u52d5": 5253,
  "\u2581safety": 5254,
  "\u2581sake": 5255,
  "\u2581prayed": 5256,
  "\u2581\u3054\u3068": 5257,
  "\u258120:": 5258,
  "\u2581Jo": 5259,
  "\u2581arrangement": 5260,
  "\u2581calm": 5261,
  "15": 5262,
  "\u2581\u63a2\u3057": 5263,
  "\u6a5f\u80fd": 5264,
  "ir": 5265,
  "\u2581forgiveness": 5266,
  "\u2581co": 5267,
  "\u2581\u304b\u3064": 5268,
  "\u2581\u5fcd\u8010": 5269,
  "\u5f37\u3044": 5270,
  "\u02b9": 5271,
  "\u2581quit": 5272,
  "\u2581tiny": 5273,
  "\u2581presented": 5274,
  "\u2581previous": 5275,
  "\u9928": 5276,
  "\u2581dry": 5277,
  "\u2581fresh": 5278,
  "\u2581played": 5279,
  "\u2581towards": 5280,
  "\u2581\u898b\u8fbc\u307f": 5281,
  "\u30d7\u30ed": 5282,
  "\u258114)": 5283,
  "\u2581Nice": 5284,
  "\u2581\u30e8\u30bb\u30d5": 5285,
  "\u3063\u3061\u3083": 5286,
  "\u2581President": 5287,
  "\u897f": 5288,
  "\u2581loves": 5289,
  "\u6551": 5290,
  "\u2581Brother": 5291,
  "\u2581\u5352\u696d": 5292,
  "\u2581\u597d": 5293,
  "ca": 5294,
  "\u66dc": 5295,
  "\u258116,": 5296,
  "\u2581\u4f1d\u7d71": 5297,
  "\u6069\u6075": 5298,
  "\u2581um": 5299,
  "\u2581\u9060\u304f": 5300,
  "\u30c6\u30b9\u30c8": 5301,
  "\u6700": 5302,
  "\u258139": 5303,
  "\u2581\u598a\u5a20": 5304,
  "\u2581\u8a00\u53ca": 5305,
  "\u30ef": 5306,
  "\u8b66\u5bdf": 5307,
  "\u2581\u5730\u9707": 5308,
  "\u8a00\u3044": 5309,
  "\u258119.": 5310,
  "\u2581grateful": 5311,
  "And": 5312,
  "\u3084\u3063": 5313,
  "\u91cc": 5314,
  "\u2581lesson": 5315,
  "\u30a4\u30f3": 5316,
  "\u2581vast": 5317,
  "\u53f3": 5318,
  "\u76f8\u624b": 5319,
  "\u2581association": 5320,
  "\u2581\u7d44": 5321,
  "\u258138": 5322,
  "\u30c3\u30c9": 5323,
  "60": 5324,
  "FBI": 5325,
  "\u2581\u5f85\u3066": 5326,
  "\u4ee3\u308f\u308a": 5327,
  "\u2581card": 5328,
  "\u2581exists": 5329,
  "\u2581younger": 5330,
  "\u6226\u4e89": 5331,
  "\u2581\u5224\u65ad": 5332,
  "\u4fdd\u5b58": 5333,
  "\u2581onto": 5334,
  "\u30c0\u30fc": 5335,
  "\u2581flock": 5336,
  "\u2581\u6709\u76ca": 5337,
  "\u2581variety": 5338,
  "\u2581whoever": 5339,
  "Applause": 5340,
  "\u2581\u4e3b\u6a29": 5341,
  "\u2581balance": 5342,
  "\u2581boss": 5343,
  "\u2581meat": 5344,
  "\u2581viewed": 5345,
  "\u2581\u6c38\u4e45": 5346,
  "\u82f1": 5347,
  "\u2581en": 5348,
  "\u2581\u30ed\u30b7\u30a2": 5349,
  "\u30bd": 5350,
  "\u2581Bethel": 5351,
  "\u2581\u8a18\u61b6": 5352,
  "\u2581aside": 5353,
  "\u2581majority": 5354,
  "\u2581largest": 5355,
  "\u2581April": 5356,
  "\u258112,": 5357,
  "\u2581Le": 5358,
  "\u2581\u30b3\u30f3\u30d4\u30e5\u30fc\u30bf\u30fc": 5359,
  "\u2581camera": 5360,
  "\u2581closed": 5361,
  "\u2581healthy": 5362,
  "\u258116)": 5363,
  "\u2581belongs": 5364,
  "\u2581match": 5365,
  "\u2581\u3060\u3081": 5366,
  "\u2581\u5b9f\u73fe": 5367,
  "\u2581Michael": 5368,
  "\u2581\u307b\u3093\u306e": 5369,
  "\u5229\u7528": 5370,
  "\u2581possibly": 5371,
  "\u2581reflect": 5372,
  "\u00a9": 5373,
  "\u2581\u30af": 5374,
  "\u2581content": 5375,
  "\u2581opinion": 5376,
  "\u2581\u4f5c\u8005": 5377,
  "\\": 5378,
  "\u258110)": 5379,
  "mo": 5380,
  "\u2581\u4eca\u56de": 5381,
  "\u30e0\u30fc\u30b5\u30fc": 5382,
  "\u91cd": 5383,
  "\u258141": 5384,
  "com": 5385,
  "\u5408\u3044": 5386,
  "\u2581California": 5387,
  "\u2581\u60a3\u96e3": 5388,
  "\u304a\u9858\u3044": 5389,
  "\u258116:": 5390,
  "\u2581\u77e5\u3089\u305b": 5391,
  "\u2581\u9280\u884c": 5392,
  "\u2581\u9aa8": 5393,
  "\u2581\u8d64": 5394,
  "\u5473": 5395,
  "\u2581\u6b62\u3081": 5396,
  "\u2581cars": 5397,
  "\u2581imitate": 5398,
  "\u2581services": 5399,
  "\u2581\u3068\u308a\u308f\u3051": 5400,
  "\u2581\u3072\u3069\u304f": 5401,
  "\u2581July": 5402,
  "\u2581applied": 5403,
  "\u2581\u57fa\u3065\u304f": 5404,
  "\u2581\u59cb\u307e": 5405,
  "\u80fd\u529b": 5406,
  "\u6148\u60b2": 5407,
  "\u65b9\u5411": 5408,
  "\u904b": 5409,
  "\u2581faced": 5410,
  "\u2581\u5927\u7d71\u9818": 5411,
  "\u2581structure": 5412,
  "\u2581\u4e0d\u601d\u8b70": 5413,
  "\u2581\u63cf": 5414,
  "\u2581divided": 5415,
  "\u2581\u3054\u3081\u3093\u306a\u3055\u3044": 5416,
  "\u2581secure": 5417,
  "\u2581soldiers": 5418,
  "\u2581weak": 5419,
  "\u2581\u5bc4\u4ed8": 5420,
  "\u2581Up": 5421,
  "\u2581discussion": 5422,
  "Z": 5423,
  "\u2581Both": 5424,
  "\u6301\u3061": 5425,
  "\u2581treated": 5426,
  "\u2581\u50cd\u304b": 5427,
  "\u2581communication": 5428,
  "\u2581humble": 5429,
  "\u2581\u5b9f\u9a13": 5430,
  "\u2581literally": 5431,
  "\u2581\u767a": 5432,
  "\u984d": 5433,
  "ph": 5434,
  "\u2581\u4f4d\u7f6e": 5435,
  "\u30a2\u30f3": 5436,
  "\u2581\u7b56": 5437,
  "bo": 5438,
  "\u2581Jane": 5439,
  "\u2581drawn": 5440,
  "\u2581movement": 5441,
  "\u2581\u30d0": 5442,
  "\u2581relatives": 5443,
  "\u2581stood": 5444,
  "\u2581\u5efa\u3066": 5445,
  "\u8abf\u67fb": 5446,
  "\u2581wake": 5447,
  "ru": 5448,
  "\u2581Truth": 5449,
  "\u2581remained": 5450,
  "\u2581basically": 5451,
  "\u958b\u59cb": 5452,
  "way": 5453,
  "\u258111)": 5454,
  "\u305d\u308c\u3089": 5455,
  "\u306e\u4e00\u90e8": 5456,
  "\u2581deliver": 5457,
  "\u8fbc\u3080": 5458,
  "per": 5459,
  "\u258119:": 5460,
  "\u2581\u3084\u3081\u308d": 5461,
  "\u2581\u4eba\u7a2e": 5462,
  "\u304b\u304b\u308b": 5463,
  "\u75c5\u6c17": 5464,
  "\u3048\u308b": 5465,
  "\u2581leads": 5466,
  "\u2581\u306a\u304a": 5467,
  "\u30e9\u30f3\u30c9": 5468,
  "\u3059\u308b\u3053\u3068\u306f": 5469,
  "\u2581worst": 5470,
  "\u2581\u5e7c\u3044": 5471,
  "\u5b87\u5b99": 5472,
  "\u8056": 5473,
  "\u2581favorite": 5474,
  "\u2581shape": 5475,
  "\u2581\u30cb\u30e5\u30fc\u30b9": 5476,
  "\u9ce5": 5477,
  "\u2581\u63cf\u5199": 5478,
  "\u306e\u305f\u3081\u306e": 5479,
  "\u5b85": 5480,
  "\u2581bag": 5481,
  "\u2581career": 5482,
  "\u2581\u52d5\u6a5f": 5483,
  "\u2581seat": 5484,
  "\u96e3\u3057\u3044": 5485,
  "\u2581Mexico": 5486,
  "\u2581\u30a2\u30f3": 5487,
  "\u2581\u5b50\u5b6b": 5488,
  "\u2581\u81ea\u6bba": 5489,
  "\u5e78\u305b": 5490,
  "\u2581marry": 5491,
  "\u2581\u751f\u6daf": 5492,
  "\u2581background": 5493,
  "\u2581causing": 5494,
  "\u2581consideration": 5495,
  "\u2581\u305f\u3068\u3048\u3070": 5496,
  "\u59ff": 5497,
  "\u2581\u30c9": 5498,
  "\u2581\u9069\u7528": 5499,
  "\u2581magazines": 5500,
  "\u2581\u305b\u3088": 5501,
  "\u2581\u5408": 5502,
  "\u308f\u308c\u308b": 5503,
  "\u5968": 5504,
  "100": 5505,
  "\u76d7": 5506,
  "\u7b2c": 5507,
  "\u2581\u60aa\u970a": 5508,
  "\u5909\u308f": 5509,
  "\u2581sword": 5510,
  "25": 5511,
  "\u2581helpful": 5512,
  "\u2581prepare": 5513,
  "$": 5514,
  "\u2581partner": 5515,
  "\u2581\u58eb": 5516,
  "\u306b\u95a2\u3059\u308b": 5517,
  "\u30d3\u30eb": 5518,
  "\u2581missionaries": 5519,
  "\u4e3b\u7fa9": 5520,
  "\u2581June": 5521,
  "\u2581\u4e86": 5522,
  "\u2581Peace": 5523,
  "\u2581\u4f4f\u6c11": 5524,
  "\u2581$": 5525,
  "\u2581\u30c6\u30b5\u30ed\u30cb\u30b1": 5526,
  "\u25814,000": 5527,
  "\u2581\u4e57\u3063": 5528,
  "\u2581horse": 5529,
  "\u2581reveal": 5530,
  "\u2581speaks": 5531,
  "\u2581\u3075": 5532,
  "\u2581\u8868": 5533,
  "\u2581\u5c0b\u306d\u308b": 5534,
  "\u2581afternoon": 5535,
  "\u2581winter": 5536,
  "\u30a2\u30c3\u30d7": 5537,
  "\u2581ears": 5538,
  "\u2581trained": 5539,
  "\u30a6\u30f3": 5540,
  "\u968e": 5541,
  "\u3064\u304d": 5542,
  "\u9593\u9055": 5543,
  "ier": 5544,
  "\u2581Samuel": 5545,
  "\u2581\u4e0d\u8db3": 5546,
  "\u2581Italy": 5547,
  "\u2581\u4f7f\u3044": 5548,
  "\u7236\u3055\u3093": 5549,
  "\u2581dust": 5550,
  "\u2581\u4f34\u3046": 5551,
  "\u3042\u3052": 5552,
  "\u660e\u3089\u304b": 5553,
  "\u7f6e": 5554,
  "\u2581removed": 5555,
  "\u2581Ro": 5556,
  "\u2581attended": 5557,
  "\u6765\u3044": 5558,
  "\u2581movie": 5559,
  "\u2581released": 5560,
  "\u2581Spanish": 5561,
  "\u2581\u55ab\u7159": 5562,
  "\u7bb1": 5563,
  "Despite": 5564,
  "\u2581Britain": 5565,
  "\u2581funny": 5566,
  "\u2581hungry": 5567,
  "\u2581\u6b6f": 5568,
  "\u2581\u304b\u304b\u308b": 5569,
  "\u2581accounts": 5570,
  "\u2581\u3059\u307e": 5571,
  "\u2581\u53ca\u307c\u3057": 5572,
  "\u2581schools": 5573,
  "\u2581\u4e16\u4ee3": 5574,
  "\u2581waters": 5575,
  "\u30e1\u30c3\u30bb\u30fc\u30b8": 5576,
  "\u5f15\u304d": 5577,
  "\u7aef": 5578,
  "\u2581\u6587\u5316": 5579,
  "ka": 5580,
  "ga": 5581,
  "\u2581\u30b5\u30f3": 5582,
  "\u2581\u5909\u308f": 5583,
  "\u2581Brazil": 5584,
  "\u2581\u7948\u308b": 5585,
  "\u753b\u50cf": 5586,
  "ho": 5587,
  "\u2581admit": 5588,
  "\u2581formed": 5589,
  "\u2581thinks": 5590,
  "\u2581\u6642\u3005": 5591,
  "\u305f\u3057": 5592,
  "\u672b": 5593,
  "\u258144": 5594,
  "\u2581General": 5595,
  "\u2581evolution": 5596,
  "\u2581August": 5597,
  "\u53ef\u80fd": 5598,
  "\u8a3c\u62e0": 5599,
  "\u2581San": 5600,
  "\u2581track": 5601,
  "\u671d": 5602,
  "that": 5603,
  "\u3044\u3084": 5604,
  "\u25813,000": 5605,
  "\u2581opposition": 5606,
  "\u2581release": 5607,
  "\u2581\u53ca\u307c\u3059": 5608,
  "\u2581\u8fd1": 5609,
  "\u4e21\u89aa": 5610,
  "\u5207": 5611,
  "\u2581\u30b9\u30c8\u30ec\u30b9": 5612,
  "\u958b": 5613,
  "\u2581\u7570\u306a\u308b": 5614,
  "\u2581\u8a3c\u3057": 5615,
  "\u30a6\u30a3": 5616,
  "\u2581\u30ec": 5617,
  "\u3089\u305a": 5618,
  "\u2581\u4ee5\u4e0b": 5619,
  "\u2581\u8a98\u60d1": 5620,
  "\u65e5\u672c": 5621,
  "\u2581eternal": 5622,
  "\u2581neighbors": 5623,
  "\u2581studied": 5624,
  "\u62d2\u5426": 5625,
  "\u2581\u5bdd": 5626,
  "\u2581cope": 5627,
  "\u2581\u985e": 5628,
  "\u2581\u30d7\u30ed": 5629,
  "\u2581\u30e1\u30ad\u30b7\u30b3": 5630,
  "\u2581\u8a9e\u308b": 5631,
  "\u2581\u8d77\u304d\u308b": 5632,
  "\u2581\u902e\u6355": 5633,
  "\u5831\u544a": 5634,
  "\u2581Center": 5635,
  "\u2581device": 5636,
  "\u30ad\u30ea\u30b9\u30c8": 5637,
  "\u9759": 5638,
  "\u2581\u59d4\u54e1": 5639,
  "\u2581\u6094\u3044\u6539\u3081": 5640,
  "\u2581dedication": 5641,
  "\u30d7\u30ed\u30b0\u30e9\u30e0": 5642,
  "\u653e": 5643,
  "ile": 5644,
  "\u2500": 5645,
  "\u2581AIDS": 5646,
  "\u79d8\u5bc6": 5647,
  "\u2581require": 5648,
  "\u2581tears": 5649,
  "\u4e09": 5650,
  "\u2581culture": 5651,
  "\u6614": 5652,
  "im": 5653,
  "\u3067\u3082\u306a\u3044": 5654,
  "\u2581jobs": 5655,
  "\u2581\u7dda": 5656,
  "\u30d5\u30a3\u30eb": 5657,
  "\u97f3\u697d": 5658,
  "\u2581walls": 5659,
  "\u2581soil": 5660,
  "\u2581\u30d0\u30ab": 5661,
  "\u2581\u78ba\u8a8d": 5662,
  "\u521d\u3081\u3066": 5663,
  "\u5730\u7403": 5664,
  "\u969b": 5665,
  "\u2581\u3054\u308d": 5666,
  "\u2581recognized": 5667,
  "\u2581\u983c\u3080": 5668,
  "\u30d2": 5669,
  "\u2581chose": 5670,
  "\u2581south": 5671,
  "\u9593\u9055\u3044": 5672,
  "\u2581products": 5673,
  "\u2581worried": 5674,
  "\u25811980": 5675,
  "\u2581\u53d7\u3051\u5165\u308c\u308b": 5676,
  "\u5730\u4e0a": 5677,
  "\u9577\u3044": 5678,
  "\u2581blow": 5679,
  "\u2581unable": 5680,
  "\u2581\u3064\u304d": 5681,
  "\u5f97\u3089\u308c": 5682,
  "\u2581Being": 5683,
  "\u2581noticed": 5684,
  "\u2581wedding": 5685,
  "\u308f\u304b\u308a": 5686,
  "\u6027\u7684": 5687,
  "\u2581\u4e00\u5c64": 5688,
  "\u2581agreed": 5689,
  "\u2581\u8f09\u305b": 5690,
  "\u25810.": 5691,
  "\u2581hidden": 5692,
  "\u2581\u6551": 5693,
  "\u2581\u7acb\u3061": 5694,
  "izing": 5695,
  "\u2581sub": 5696,
  "\u2581board": 5697,
  "\u30ea\u30a2": 5698,
  "\u591a\u3044": 5699,
  "\u2581Master": 5700,
  "\u2581\u30ec\u30d3": 5701,
  "\u2581actual": 5702,
  "\u2581\u59cb\u3081\u308b": 5703,
  "\u5343": 5704,
  "\u6bd2": 5705,
  "\u2581smaller": 5706,
  "\u8ad6": 5707,
  "\u2581Blurb": 5708,
  "\u2581\u4eba\u7269": 5709,
  "\u4fe1\u3058\u308b": 5710,
  "\u2581\u3068\u306b\u304b\u304f": 5711,
  "\u2581\u5931\u793c": 5712,
  "Q": 5713,
  "\u2581apparently": 5714,
  "\u2581medicine": 5715,
  "\u2581\u30d3\u30eb": 5716,
  "\u2581\u4ed8\u3051": 5717,
  "\u2581150": 5718,
  "\u2581overcome": 5719,
  "\u3076": 5720,
  "\u96a0\u3057": 5721,
  "\u2581El": 5722,
  "\u2581European": 5723,
  "\u2581clergy": 5724,
  "When": 5725,
  "\u2581essential": 5726,
  "\u2581\u4f5c\u696d": 5727,
  "\u2581writes": 5728,
  "\u3057\u305f\u308a": 5729,
  "\u793a\u3057": 5730,
  "you": 5731,
  "\u2581glass": 5732,
  "\u2581mark": 5733,
  "\u2581Nobody": 5734,
  "\u2581\u9577\u304f": 5735,
  "\u3067\u3059\u304b\u3089": 5736,
  "\u4fe1\u983c": 5737,
  "\u2581Ra": 5738,
  "\u2581string": 5739,
  "\u2581\u5f79": 5740,
  "\u2581\u3059\u307f\u307e": 5741,
  "\u2581\u98df\u7ce7": 5742,
  "\u9023": 5743,
  "\u2581estimated": 5744,
  "\u2581\u5712": 5745,
  "\u30b7\u30e3": 5746,
  "\u2581wearing": 5747,
  "\u53d6\u3063\u3066": 5748,
  "\u2581opposite": 5749,
  "\u30c1\u30a7\u30c3\u30af": 5750,
  "\u8868\u73fe": 5751,
  "\u2581Messenger": 5752,
  "\u2581exact": 5753,
  "\u2581\u6c7a\u3081": 5754,
  "\u2581\u8cc7\u683c": 5755,
  "\u2581photo": 5756,
  "\u2581\u3076\u3069\u3046": 5757,
  "AL": 5758,
  "DE": 5759,
  "ities": 5760,
  "\u2581\u958b\u767a": 5761,
  "\u96c6\u3081": 5762,
  "\u2581\u3082\u305f\u3089": 5763,
  "\u5e30\u308b": 5764,
  "di": 5765,
  "\u2581deny": 5766,
  "\u2581ends": 5767,
  "\u2581hardly": 5768,
  "\u2581\u9006": 5769,
  "\u2581properly": 5770,
  "\u2581\u65cf": 5771,
  "\u7236\u89aa": 5772,
  "\u2581impressed": 5773,
  "\u2581\u7e70\u308a\u8fd4\u3057": 5774,
  "\u2581\u88c5\u7f6e": 5775,
  "au": 5776,
  "\u25811990": 5777,
  "\u2581\u5024": 5778,
  "\u2581\u306e\u307f": 5779,
  "\u2581\u6709": 5780,
  "\u2581\u7269\u8a9e": 5781,
  "\u5c0e\u304d": 5782,
  "\u96fb": 5783,
  "\u307f\u308d": 5784,
  "\u2581\u76f4": 5785,
  "\u2581post": 5786,
  "\u74a7": 5787,
  "\"?": 5788,
  "\u2581Ni": 5789,
  "\u2581disbelieve": 5790,
  "\u2581encouragement": 5791,
  "\u2581mess": 5792,
  "\u2581\u4f5c\u308a": 5793,
  "tro": 5794,
  "\u2581\u5168\u5730": 5795,
  "\u2581\u601d\u3044\u8d77\u3053": 5796,
  "ium": 5797,
  "\u2581audience": 5798,
  "\u2581construction": 5799,
  "\u9375": 5800,
  "\u3015": 5801,
  "\u2581definitely": 5802,
  "\u5317": 5803,
  "\u74b0\u5883": 5804,
  "\u2581thy": 5805,
  "\u305d\u308c\u3067": 5806,
  "\u53d6\u308b": 5807,
  "\u2581Ezekiel": 5808,
  "\u2581map": 5809,
  "\u258117)": 5810,
  "\u2581diseases": 5811,
  "\u2581resurrected": 5812,
  "\u2581snow": 5813,
  "\u2581\u3082\u3063\u3068\u3082": 5814,
  "\u2581\u6b32\u671b": 5815,
  "\u2581degrees": 5816,
  "ER": 5817,
  "den": 5818,
  "\u2581\u795e\u7d4c": 5819,
  "\u2581attending": 5820,
  "\u2581commanded": 5821,
  "\u56f3": 5822,
  "\u2581fat": 5823,
  "\u2581losing": 5824,
  "\u2581target": 5825,
  "\u2581\u5076\u50cf": 5826,
  "\u2581\u661f": 5827,
  "\u2581\u30d9": 5828,
  "\u2581\u30d9\u30c6\u30eb": 5829,
  "\u2581\u5e97": 5830,
  "\u2581Health": 5831,
  "\u3002": 5832,
  "\u653f\u5e9c": 5833,
  "\u258113,": 5834,
  "\u2581compared": 5835,
  "\u2581faces": 5836,
  "\u2581income": 5837,
  "\u2581\u4eba\u683c": 5838,
  "\u2581\u6c17\u3065": 5839,
  "\u2581\u9055": 5840,
  "\u2581Internet": 5841,
  "\u2581\u542b\u3080": 5842,
  "\u2581\u6c17\u3065\u304d": 5843,
  "\u30d3\u30fc": 5844,
  "\u2581paying": 5845,
  "\u2581granted": 5846,
  "\u2581imperfect": 5847,
  "\u4eba\u7269": 5848,
  "red": 5849,
  "amp": 5850,
  "\u258113)": 5851,
  "\u2581December": 5852,
  "\u2581cast": 5853,
  "\u2581\u6d99": 5854,
  "\u2581Frank": 5855,
  "\u2581Paris": 5856,
  "\u2581fourth": 5857,
  "\u2581joined": 5858,
  "\u2581\u305f\u304f": 5859,
  "\u2581changing": 5860,
  "\u2581otherwise": 5861,
  "\u2581\u30b5\u30e0": 5862,
  "\u2581\u4e21\u65b9": 5863,
  "\u2581ring": 5864,
  "\u2581warn": 5865,
  "\u866b": 5866,
  "\u2581atmosphere": 5867,
  "\u2581\u4f1a\u8a71": 5868,
  "\u4f1a\u3046": 5869,
  "\u2581gathered": 5870,
  "\u6307": 5871,
  "\u2581examine": 5872,
  "\u52d5\u7269": 5873,
  "\u2581\u88ab": 5874,
  "\u2581\u904e\u304e": 5875,
  "\u3044\u3066\u3082": 5876,
  "\u2581Soviet": 5877,
  "\u2581\u4f1a\u8b70": 5878,
  "\u2581\u6ce8\u610f\u6df1\u304f": 5879,
  "\u2581degree": 5880,
  "\u2581\u4e0a\u3052": 5881,
  "\u6570\u5b57": 5882,
  "\u2581\u3060\u308a": 5883,
  "\u2581\u5175\u58eb": 5884,
  "\u2581\u63d0\u6848": 5885,
  "\u2581\u679c\u305f\u3059": 5886,
  "\u2581probability": 5887,
  "\u2581\u6fc0\u3057\u3044": 5888,
  "\u2581elements": 5889,
  "\u82e5\u3044": 5890,
  "\u2581\u5c45": 5891,
  "day": 5892,
  "\u2581\u53f0": 5893,
  "con": 5894,
  "\u2581involves": 5895,
  "\u2581\u79d8\u5bc6": 5896,
  "\u2581\u9b45\u529b": 5897,
  "\u7ba1\u7406": 5898,
  "\u72af\u7f6a": 5899,
  "\u2581\u767a\u5c55": 5900,
  "\u2581records": 5901,
  "\u2581sincere": 5902,
  "\u4efb": 5903,
  "\u98db\u884c": 5904,
  "\u2581affairs": 5905,
  "\u2581weapon": 5906,
  "\u2581wood": 5907,
  "\u2581\u7533\u547d\u8a18": 5908,
  "ction": 5909,
  "\u2581inhabitants": 5910,
  "\u2581\u5f15\u7528": 5911,
  "\u2581apartment": 5912,
  "\u2581includes": 5913,
  "but": 5914,
  "\u25817)": 5915,
  "\u2581Call": 5916,
  "\u904b\u8ee2": 5917,
  "\u2581painful": 5918,
  "\u2581\u7279": 5919,
  "\u3089\u308c\u3066\u3044\u308b": 5920,
  "\u5049\u5927": 5921,
  "\u2581traffic": 5922,
  "\u2581Name": 5923,
  "\u2581duty": 5924,
  "\u2581obvious": 5925,
  "\u6751": 5926,
  "\u2581obviously": 5927,
  "\u2581region": 5928,
  "\u2581truck": 5929,
  "\u2581types": 5930,
  "\u2581\u6c5a\u308c": 5931,
  "\u51e6\u7406": 5932,
  "\u2581\u4ea4\u308f\u308a": 5933,
  "\u5207\u308c": 5934,
  "\u2581contrary": 5935,
  "\u3051\u308c\u3070": 5936,
  "\u7d39\u4ecb": 5937,
  "\u3084\u304b": 5938,
  "\u2581magic": 5939,
  "\u2581sat": 5940,
  "\u2581souls": 5941,
  "\u2581\u304a\u3088\u305d": 5942,
  "\u2581Western": 5943,
  "\u2581illness": 5944,
  "\u4e0d\u7fa9": 5945,
  "led": 5946,
  "\u2581poverty": 5947,
  "\u30ab\u30e1\u30e9": 5948,
  "\u30ef\u30fc\u30c9": 5949,
  "\u2581\u5e78\u3044": 5950,
  "\u7d44\u7e54": 5951,
  "\u2581film": 5952,
  "\u2581\u9053\u8def": 5953,
  "\u3068\u304a\u308a": 5954,
  "\u30d5\u30a1": 5955,
  "\u2581Spain": 5956,
  "gen": 5957,
  "\u2581determine": 5958,
  "\u2581ocean": 5959,
  "ber": 5960,
  "\u2581March": 5961,
  "\u2581\u8d85": 5962,
  "\u30b0\u30eb\u30fc\u30d7": 5963,
  "\u2581\u308a\u3063\u3071": 5964,
  "\u2581weird": 5965,
  "\u2581\u3053\u3093\u306b\u3061\u306f": 5966,
  "\u2581swear": 5967,
  "\u4ea4": 5968,
  "\u2581cup": 5969,
  "\u2581evident": 5970,
  "\u2581trials": 5971,
  "ke": 5972,
  "\u2581\u5358": 5973,
  "\u2581suppose": 5974,
  "\u3084\u3064": 5975,
  "\u6c17\u6301\u3061": 5976,
  "\u2581rejoice": 5977,
  "\u3054\u3068": 5978,
  "\u5927\u5909": 5979,
  "\u983c": 5980,
  "\u258123.": 5981,
  "\u2581prefer": 5982,
  "\u2581\u89b3\u5bdf": 5983,
  "\u2581Ephesians": 5984,
  "\u4e0a\u624b": 5985,
  "\u2581\u6050\u308d\u3057\u3044": 5986,
  "\u3089\u308c\u3066\u3044": 5987,
  "\u2581\u90e8\u65cf": 5988,
  "\u2581bigger": 5989,
  "\u5927\u304d\u3044": 5990,
  "\u8a3c\u660e": 5991,
  "\u2581\u4e0a\u624b": 5992,
  "\u2581resources": 5993,
  "\u2581throne": 5994,
  "\u3042\u3068": 5995,
  "\u3082\u3089\u3046": 5996,
  "\u53f7": 5997,
  "\u2581Mm": 5998,
  "\u2581\u4f9b\u7d66": 5999,
  "\u2581character": 6000,
  "\u5730\u7344": 6001,
  "\u2581mission": 6002,
  "\u2581offering": 6003,
  "\u2581\u5206\u91ce": 6004,
  "\u2581\u72af\u4eba": 6005,
  "\u8981\u7d20": 6006,
  "\u2581describe": 6007,
  "\u2581associate": 6008,
  "\u30db": 6009,
  "\u2581selected": 6010,
  "\u2581delivered": 6011,
  "lin": 6012,
  "\u3089\u304c": 6013,
  "\u8155": 6014,
  "\u2581Try": 6015,
  "\u2581\u91cd": 6016,
  "\u88c5\u7f6e": 6017,
  "ure": 6018,
  "\u2581Fine": 6019,
  "\u2581September": 6020,
  "How": 6021,
  "\u2581\u307f\u8a00\u8449": 6022,
  "\u6839": 6023,
  "\u2581Shut": 6024,
  "\u2581\u65bd\u8a2d": 6025,
  "\u2581\u8010\u3048": 6026,
  "\u3064\u3044\u305f": 6027,
  "\u2581Professor": 6028,
  "\u2581shared": 6029,
  "\u2581super": 6030,
  "\u884c\u70ba": 6031,
  "\u2581\u8a8d\u3081\u308b": 6032,
  "\u2581delight": 6033,
  "\u2581\u8179": 6034,
  "\u2581Ps": 6035,
  "\u2581Wow": 6036,
  "\u2581absolutely": 6037,
  "\u30bf\u30a4\u30d7": 6038,
  "\u2581clothing": 6039,
  "\u5730\u57df": 6040,
  "\u258115)": 6041,
  "\u2581River": 6042,
  "\u2581\u7d42\u308f\u308b": 6043,
  "hath": 6044,
  "\u2581critical": 6045,
  "\u2581\u6b63\u5f53": 6046,
  "\u2581dance": 6047,
  "\u2581\u4e00\u6642": 6048,
  "\u2581\u6839\u62e0": 6049,
  "\u2581depression": 6050,
  "\u3081\u308b": 6051,
  "\u2581\u5f93\u3044": 6052,
  "\u2581\u6804\u990a": 6053,
  "\u2581\u73fe\u308f\u308c": 6054,
  "\u2581\u8d77\u3053": 6055,
  "\u2581spot": 6056,
  "\u2581\u5c0e": 6057,
  "\u2581\u4e8b\u5178": 6058,
  "\u516c": 6059,
  "\u2581overseer": 6060,
  "\u2581traditional": 6061,
  "\u2581\u3082\u3089\u3046": 6062,
  "\u2581\u3084\u308b": 6063,
  "\u3046\u307e\u304f": 6064,
  "\u2581Hell": 6065,
  "\u2581option": 6066,
  "\u4e8b\u6545": 6067,
  "\u2581\u30b7\u30b9\u30c6\u30e0": 6068,
  "\u2581\u62b5\u6297": 6069,
  "\u2581bound": 6070,
  "\u2581surgery": 6071,
  "\u2581\u725b": 6072,
  "\u2581\u983c": 6073,
  "\u552f\u4e00": 6074,
  "\u71b1": 6075,
  "\u2581Besides": 6076,
  "\u2581indicates": 6077,
  "\u2581\u805e\u304b": 6078,
  "my": 6079,
  "\u2581planning": 6080,
  "\u2581\u662f\u8a8d": 6081,
  "\u2581\u5468\u56f2": 6082,
  "70": 6083,
  "\u2581rid": 6084,
  "\u2581\u53cd": 6085,
  "\u8ddd\u96e2": 6086,
  "\u9577\u5e74": 6087,
  "\u2581excellent": 6088,
  "\u2581rejected": 6089,
  "\u5e2d": 6090,
  "lic": 6091,
  "\u2581\u4fdd\u3061": 6092,
  "\u2581\u9078\u3076": 6093,
  "See": 6094,
  "\u30ac\u30fc": 6095,
  "\u7d19": 6096,
  "\u2581superior": 6097,
  ",2": 6098,
  "\u2581adult": 6099,
  "\u2581slaves": 6100,
  "\u304b\u308c\u308b": 6101,
  "\u2581\u8d08\u308a\u7269": 6102,
  "\u66f2": 6103,
  "ley": 6104,
  "\u2581International": 6105,
  "\u2581\u6e1b\u5c11": 6106,
  "\u2581\u8abf\u6574": 6107,
  "\u2581demons": 6108,
  "\u2581\u6b69": 6109,
  "ator": 6110,
  "\u2581\u30d0\u30fc": 6111,
  "\u2581\u5264": 6112,
  "\u2581\u984c\u3059\u308b": 6113,
  "\u2581starts": 6114,
  "\u2581suicide": 6115,
  "\u2581\u3064\u304f": 6116,
  "\u2581\u30d0\u30b9": 6117,
  "\u2581\u4fe1\u3058\u308b": 6118,
  "\u2581\u5e02\u6c11": 6119,
  "\u53e4": 6120,
  "ab": 6121,
  "\u2581comments": 6122,
  "\u2581missed": 6123,
  "\u2581\u6a5f\u68b0": 6124,
  "\u2581\u6bba\u3057": 6125,
  "\u2581laid": 6126,
  "\u2581receiving": 6127,
  "\u2581\u4e00\u751f": 6128,
  "\u697d": 6129,
  "\u2581\u540c\u610f": 6130,
  "\u258146": 6131,
  "\u25816)": 6132,
  "\u2581\u6a5f\u80fd": 6133,
  "\u2581\u5e74\u9f62": 6134,
  "\u2581cat": 6135,
  "\u2581burning": 6136,
  "\u2581\u6559\u7406": 6137,
  "tor": 6138,
  "\u2581Black": 6139,
  "\u2581\u306a\u3093": 6140,
  "\u2581\u5230\u6765": 6141,
  "\u6bcd\u89aa": 6142,
  "\u2581demand": 6143,
  "\u2581\u6050\u308c\u308b": 6144,
  "\u305f\u3044\u3068": 6145,
  "\u30bf\u30f3": 6146,
  "\u2581significant": 6147,
  "\u2581\u5f1f": 6148,
  "\u30c6\u30f3": 6149,
  "\u2581compare": 6150,
  "\u2581flying": 6151,
  "\u2581\u707d\u3044": 6152,
  "\u6563": 6153,
  "\u2581Asia": 6154,
  "\u2581streets": 6155,
  "\u2581subjects": 6156,
  "\u2581\u5f01\u8b77": 6157,
  "\u2581fix": 6158,
  "\u2581\u5f8c\u308d": 6159,
  "pi": 6160,
  "\u2581affection": 6161,
  "\u2581\u4e2d\u6bd2": 6162,
  "\u3053\u308c\u3089": 6163,
  "\u2581Shit": 6164,
  "\u2581Check": 6165,
  "\u2581gifts": 6166,
  "\u5df1": 6167,
  "\u2581October": 6168,
  "\u30cb\u30a2": 6169,
  "\u52d5\u304d": 6170,
  "\u793e\u4f1a": 6171,
  "\u2581application": 6172,
  "\u2581\u5ba3\u8a00": 6173,
  "\u2581\u6d41\u308c": 6174,
  "\u2581\u9078": 6175,
  "80": 6176,
  "\u2581ought": 6177,
  "\u2581pounds": 6178,
  "\u2581\u5909\u308f\u308a": 6179,
  "\u2581\u5bfe\u8c61": 6180,
  "\u2581\u5e7e\u3089\u304b": 6181,
  "\u30d1\u30fc": 6182,
  "\u2581spring": 6183,
  "\u2581\u5b88": 6184,
  "\u2581\u5e78\u305b": 6185,
  "\u76ee\u6483": 6186,
  "\u2581organized": 6187,
  "\u2581\u8449": 6188,
  "\u306b\u304a": 6189,
  "\u306e\u4eba\u3005": 6190,
  "\u30c3\u30d7": 6191,
  "\u2581begins": 6192,
  "\u2581\u6709\u5bb3": 6193,
  "\u2581\u767a\u8868": 6194,
  "\u30d0\u30ab": 6195,
  "good": 6196,
  "\u5c40": 6197,
  "\u5acc": 6198,
  "\u91cd\u8981": 6199,
  "\u2581skills": 6200,
  "\u63cf": 6201,
  "\u2581\u5f15\u304d\u7d9a\u304d": 6202,
  "\u2581assume": 6203,
  "\u2581\u697d": 6204,
  "\u2581\u7cfb": 6205,
  "ably": 6206,
  "\u2581industry": 6207,
  "\u2581tea": 6208,
  "\u2581worldly": 6209,
  "\u2581\u6df1\u523b": 6210,
  "\u2581\u30b3\u30fc\u30d2\u30fc": 6211,
  "\u2581contain": 6212,
  "\u2581expensive": 6213,
  "\u2581\u5909\u3048\u308b": 6214,
  "\u306a\u3051\u308c\u3070\u306a": 6215,
  "\u30e1\u30fc\u30eb": 6216,
  "\u2581production": 6217,
  "\u2581\u56f3": 6218,
  "\u2581\u8155": 6219,
  "\u30b8\u30a7": 6220,
  "\u60f3\u50cf": 6221,
  "\u2581adults": 6222,
  "\u2581relations": 6223,
  "\u2581tend": 6224,
  "\u2581bomb": 6225,
  "\u2581objects": 6226,
  "\u2581officials": 6227,
  "\u68d2": 6228,
  "cause": 6229,
  "ps": 6230,
  "\u2581tax": 6231,
  "\u2581flow": 6232,
  "\u2581\u304a\u7236\u3055\u3093": 6233,
  "\u2581\u8abf\u3079\u308b": 6234,
  "\u6368\u3066": 6235,
  "\u2581territory": 6236,
  "\u2581\u96c6\u307e\u308a": 6237,
  "\u304b\u3051\u308b": 6238,
  "\u6d88\u3048": 6239,
  "\u2581\u601d\u3044\u51fa\u3057": 6240,
  "\u2581\u8cdc\u7269": 6241,
  "\u2581\u304b\u304b\u308a": 6242,
  "\u2581elderly": 6243,
  "\u2581\u6e56": 6244,
  "\u30da\u30fc\u30b8": 6245,
  "\u2581\u8fd1\u3065\u304f": 6246,
  "\u5408\u308f\u305b": 6247,
  "\u2581cash": 6248,
  "\u2581teeth": 6249,
  "\u2581\u9650": 6250,
  "\u2581officer": 6251,
  "\u2581\u3044\u3051": 6252,
  "\u2581\u6301\u305f": 6253,
  "\u2581\u6ce2": 6254,
  "\u2581acting": 6255,
  "\u2581\u5197\u8ac7": 6256,
  "\u2581Gilead": 6257,
  "\u2581Welcome": 6258,
  "\u2581anti": 6259,
  "\u30d0\u30b9": 6260,
  "\u5168\u7136": 6261,
  "j": 6262,
  "\u2581\u53f2": 6263,
  "qui": 6264,
  "\u2581Family": 6265,
  "\u2581Robert": 6266,
  "\u2581v": 6267,
  "\u2581r": 6268,
  "\u2581version": 6269,
  "\u2581\u7bb4": 6270,
  "\u7686\u3055\u3093": 6271,
  "\u2581flowers": 6272,
  "\u2581offspring": 6273,
  "der": 6274,
  "\u258122:": 6275,
  "\u2581decades": 6276,
  "\u2581obedience": 6277,
  "\u2581\u898b\u89e3": 6278,
  "\u52c9\u5f37": 6279,
  "\u9662": 6280,
  "\u2581\u30af\u30ea\u30b9\u30de\u30b9": 6281,
  "\u3060\u3044": 6282,
  "\u2581ear": 6283,
  "\u2581\u8d16\u3044": 6284,
  "\u30ec\u30f3": 6285,
  "\u2581\u6255": 6286,
  "\u2581diet": 6287,
  "ass": 6288,
  "\u2581passing": 6289,
  "\u2581verse": 6290,
  "\u30dd\u30fc\u30c8": 6291,
  "\u2581January": 6292,
  "\u2581\u767e\u79d1": 6293,
  "\u30aa\u30d7\u30b7\u30e7\u30f3": 6294,
  "\u5de6": 6295,
  "\u2581pride": 6296,
  "\u2581\u843d\u3061": 6297,
  "\u3079": 6298,
  "\u30b5\u30fc": 6299,
  "\u2581Pro": 6300,
  "\u2581pleased": 6301,
  "\u7b56": 6302,
  "\u2581methods": 6303,
  "\u2581honey": 6304,
  "\u2581\u8a2d\u8a08": 6305,
  "\u25811960": 6306,
  "\u2581House": 6307,
  "\u2581\u904e\u3054\u3057": 6308,
  "\u5bb3": 6309,
  "\u2581George": 6310,
  "\u2581prophets": 6311,
  "\u53cb": 6312,
  "\u2581views": 6313,
  "\u2581\u30bf\u30a4\u30e0\u30ba": 6314,
  "\u2581\u96a3\u4eba": 6315,
  "\u9280\u884c": 6316,
  "\u2581capable": 6317,
  "\u7acb\u3064": 6318,
  "\u2581\u5468\u308a": 6319,
  "\u2581leg": 6320,
  "\u2581\u5730\u4f4d": 6321,
  "\u2581\u898b\u3044\u3060\u3059": 6322,
  "\u3069\u3061": 6323,
  "\u4e8b\u5b9f": 6324,
  "\u2581\"\"": 6325,
  "\u2581Men": 6326,
  "\u2581Were": 6327,
  "\u2581park": 6328,
  "\u2581\u69d8\u5b50": 6329,
  "\u501f\u308a": 6330,
  "\u5927\u304d\u304f": 6331,
  "\u2581Note": 6332,
  "\u2581remnant": 6333,
  "\u2581\u9996": 6334,
  "#": 6335,
  "\u2581Pharaoh": 6336,
  "\u2581patience": 6337,
  "\u2581\u30a2\u30b8\u30a2": 6338,
  "\u2581referred": 6339,
  "\u2581\u7dca\u6025": 6340,
  "\u2581driver": 6341,
  "\u2581constantly": 6342,
  "\u2581professor": 6343,
  "\u2581smart": 6344,
  "\u2581items": 6345,
  "\u3067\u308b": 6346,
  "\u9055": 6347,
  "\u258122.": 6348,
  "\u2581reference": 6349,
  "\u2581situations": 6350,
  "\u2581victory": 6351,
  "\u4e8b\u306a": 6352,
  "\u2581Mike": 6353,
  "\u2581Work": 6354,
  "\u6975": 6355,
  "\u8def": 6356,
  "\u2581suggest": 6357,
  "\u2581torment": 6358,
  "\u2581truths": 6359,
  "\u2581\u901a\u5e38": 6360,
  "\u25813,4": 6361,
  "\u2581labor": 6362,
  "\u2581\u6bb5\u968e": 6363,
  "\u30ec\u30c3\u30c8": 6364,
  "\u2581;": 6365,
  "\u2581faster": 6366,
  "\u2581media": 6367,
  "\u2581\u6bba\u3059": 6368,
  "ave": 6369,
  "\u2581quoted": 6370,
  "\u2581legs": 6371,
  "\u2581mighty": 6372,
  "\u2581permission": 6373,
  "\u2581\u5f15\u304d": 6374,
  "\u6700\u5927": 6375,
  "\u7b49\u3057\u3044": 6376,
  "\u306d\u3070": 6377,
  "\u5dee": 6378,
  "\u258175": 6379,
  "\u2581Na": 6380,
  "\u8a00\u8a9e": 6381,
  "\u2581claims": 6382,
  "\u2581\u30c8": 6383,
  "\u2581\u7d75": 6384,
  "\u30e2\u30c7\u30eb": 6385,
  "\u2581\u4e8b\u304c\u3089": 6386,
  "\u2581\u5185\u5bb9": 6387,
  "\u3092\u53d6": 6388,
  "\u4e73": 6389,
  "To": 6390,
  "ship": 6391,
  "\u2581stayed": 6392,
  "\u2581\u7523": 6393,
  "\u3064\u307e\u308a": 6394,
  "\u5354\u529b": 6395,
  "RE": 6396,
  "\u2581identify": 6397,
  "\u2581worshipers": 6398,
  "\u2581\u5b89\u5b9a": 6399,
  "\u624b\u7d19": 6400,
  "\u2581user": 6401,
  "\u2581\u518a\u5b50": 6402,
  "\u547d\u3058": 6403,
  "\u9aea": 6404,
  "\u2581allows": 6405,
  "\u884c\u3046": 6406,
  "\u2581agent": 6407,
  "\u2581\u4e0d\u53ef\u80fd": 6408,
  "\u2581\u7a2e\u3005": 6409,
  "\u767e\u4e07": 6410,
  "\u7d30\u80de": 6411,
  "\u9045\u308c": 6412,
  "\u2581mistakes": 6413,
  "\u2581\u59b9": 6414,
  "ow": 6415,
  "\u2581orders": 6416,
  "\u2581\u898b\u3064\u304b": 6417,
  "\u63a5": 6418,
  "\u2581loyalty": 6419,
  "\u2581\u5375": 6420,
  "\u2581\u898b\u305f": 6421,
  "\u2581silver": 6422,
  "\u2581season": 6423,
  "\u306f\u304b\u308c": 6424,
  "\u512a\u308c": 6425,
  "che": 6426,
  "\u2581beast": 6427,
  "\u2581\u610f\u56f3": 6428,
  "\u7537\u6027": 6429,
  "ization": 6430,
  "\u2581\u795e\u3005": 6431,
  "\u826f\u304b": 6432,
  "\u2581Ten": 6433,
  "\u2581provision": 6434,
  "\u2581\u307c\u304f": 6435,
  "\u81ea\u7136": 6436,
  "pos": 6437,
  "\u2581grave": 6438,
  "\u2581professional": 6439,
  "\u2581sleeping": 6440,
  "\u5165\u308c\u308b": 6441,
  "\u2581leader": 6442,
  "\u2581\u8aed\u3057": 6443,
  "\u2581\u5230\u7740": 6444,
  "\u2581\u5b66\u751f": 6445,
  "\u2581\u8a2a\u308c": 6446,
  "\u53d7\u3051\u308b": 6447,
  "\u2581prophecies": 6448,
  "\u2581temperature": 6449,
  "\u4f4f": 6450,
  "\u2581ball": 6451,
  "\u2581connected": 6452,
  "\u2581upset": 6453,
  "\u6ce2": 6454,
  "\u2581afford": 6455,
  "\u2581unusual": 6456,
  "\u2581\u671b\u307f": 6457,
  "\u30a4\u30a8\u30b9": 6458,
  "\u5f3e": 6459,
  "\u2581\u5730\u7344": 6460,
  "ger": 6461,
  "\u2581\u606f": 6462,
  "\u2581burned": 6463,
  "\u307e\u3057\u3087": 6464,
  "pa": 6465,
  "\u2581\u96fb\u6c17": 6466,
  "ha": 6467,
  "\u65c5": 6468,
  "\u7d75": 6469,
  "\u2581Biblical": 6470,
  "\u3072": 6471,
  "\u2581US": 6472,
  "\u2581Latin": 6473,
  "\u2581White": 6474,
  "\u2581Rev": 6475,
  "\u2581lots": 6476,
  "\u2581\u7a93": 6477,
  "ious": 6478,
  "\u2581\u4f9d\u7136": 6479,
  "\u2581\u8650\u5f85": 6480,
  "\u2581Almighty": 6481,
  "\u2581birthday": 6482,
  "\u2581wipe": 6483,
  "\u2581\u540c\u60c5": 6484,
  "\u2581\u6271\u3046": 6485,
  "\u2581\u7267\u5e2b": 6486,
  "\u7a2e\u985e": 6487,
  "\u9001\u308a": 6488,
  "\u2581therein": 6489,
  "\u2581\u6599\u7406": 6490,
  "\u30b8\u30fc": 6491,
  "\u5acc\u3044": 6492,
  "\u2581Add": 6493,
  "\u2581Brooklyn": 6494,
  "\u2581beneficial": 6495,
  "\u2581sand": 6496,
  "\u902e\u6355": 6497,
  "\u2581babies": 6498,
  "\u2581\u3059\u3054": 6499,
  "\u2581\u5de5\u5834": 6500,
  "\u6fc0": 6501,
  "\u2581Americans": 6502,
  "\u2581\u5927\u91cf": 6503,
  "\u7acb\u3061": 6504,
  "\u2581Bill": 6505,
  "\u2581performed": 6506,
  "\u3014": 6507,
  "\u30ae": 6508,
  "\u2581\u30a2\u30fc": 6509,
  "\u2581verses": 6510,
  "\u2581\u30b8\u30e3\u30c3\u30af": 6511,
  "ative": 6512,
  "\u2581salt": 6513,
  "\u30da": 6514,
  "\u2581\u30b9\u30dd\u30fc\u30c4": 6515,
  "\u2581\u5165\u308c\u308b": 6516,
  "\u9152": 6517,
  "\u2581\u3053\u3046\u3044\u3046": 6518,
  "\u30d6\u30eb": 6519,
  "\u2581En": 6520,
  "\u2581\u53ca\u3076": 6521,
  "\u5e73\u548c": 6522,
  "\u2581lasting": 6523,
  "\u2581\u30ca": 6524,
  "\u2581\u8208\u5473": 6525,
  "\u30af\u30e9\u30b9": 6526,
  "\u25812)": 6527,
  "\u2581History": 6528,
  "\u2581Ko": 6529,
  "\u25819,10": 6530,
  "\u2581succeed": 6531,
  "\u30ab\u30f3": 6532,
  "\u2581picked": 6533,
  "\u2581\u679c\u305f\u3057": 6534,
  "\u8074": 6535,
  "ang": 6536,
  "\u2581\u308f\u304b\u308b": 6537,
  "\u2581dropped": 6538,
  "\u2581\u53b3\u3057\u3044": 6539,
  "\u2581\u5730\u56f3": 6540,
  "\u7f8e\u3057\u3044": 6541,
  "\u258119,": 6542,
  "\u2581corner": 6543,
  "\u2581discussed": 6544,
  "\u2581illustration": 6545,
  "\u2581sudden": 6546,
  "\u2581\u610f\u5fd7": 6547,
  "\u75c7": 6548,
  "\u2581\u4eca\u5f8c": 6549,
  "\u2581\u4f5c\u3089": 6550,
  "\u5e45": 6551,
  "\u5f8c\u308d": 6552,
  "ect": 6553,
  "\u2581Long": 6554,
  "\u2581ha": 6555,
  "\u2581ordered": 6556,
  "\u2581\u3084\u308a": 6557,
  "\u2581\u62b1\u3048": 6558,
  "\u2581ministers": 6559,
  "\u2581remarkable": 6560,
  "pe": 6561,
  "\u2581push": 6562,
  "\u2581struck": 6563,
  "\u2581tests": 6564,
  "\u2581suit": 6565,
  "\u2581\u304d\u308c\u3044": 6566,
  "\u2581besides": 6567,
  "\u2581instruction": 6568,
  "\u2581network": 6569,
  "\u2581sing": 6570,
  "\u2581\u5e7b": 6571,
  "\u2581Whoa": 6572,
  "\u2581puts": 6573,
  "\u2581replied": 6574,
  "\u4e88\u5b9a": 6575,
  "\u2581\u590f": 6576,
  "\u3068\u308a": 6577,
  "\u2581Second": 6578,
  "\u2581bearing": 6579,
  "\u2581\u7206\u767a": 6580,
  "\u2581\u98df\u3079\u7269": 6581,
  "\u7834\u58ca": 6582,
  "ten": 6583,
  "\u2581\u50b7": 6584,
  "\u2581\u9a5a": 6585,
  "new": 6586,
  "\u258117,": 6587,
  "90": 6588,
  "\u2581equipment": 6589,
  "\u5168\u54e1": 6590,
  "\u2581Too": 6591,
  "\u2581\u5f79\u7acb\u3061": 6592,
  "\u2581\u8a9e\u3089": 6593,
  "\u30b8\u30e7\u30f3": 6594,
  "\u2581Everybody": 6595,
  "\u2581claimed": 6596,
  "\u2581conflict": 6597,
  "\u2581crisis": 6598,
  "\u2581\u7528\u610f": 6599,
  "\u547c\u3076": 6600,
  "\u2581jump": 6601,
  "\u2581guided": 6602,
  "\u2581loose": 6603,
  "\u601d\u308f": 6604,
  "\u2581feature": 6605,
  "\u2581represent": 6606,
  "\u2581daughters": 6607,
  "\u2581\u4e88\u5b9a": 6608,
  "\u3055\u307e": 6609,
  "\u2581fields": 6610,
  "\u2581mothers": 6611,
  "\u52a0\u3048": 6612,
  "\u2581Tim": 6613,
  "\u2581arrested": 6614,
  "\u2581iron": 6615,
  "\u30a8\u30e9\u30fc": 6616,
  "\u2581breath": 6617,
  "\u2581moves": 6618,
  "\u2581\u56fd\u9023": 6619,
  "\u2581\u7248": 6620,
  "\u4e92": 6621,
  "\u2581\u8a71\u3057\u5408\u3044": 6622,
  "\u2581publishers": 6623,
  "\u2581screen": 6624,
  "\u30bb\u30c3\u30c8": 6625,
  "\u60a3\u8005": 6626,
  "\u2581advance": 6627,
  "\u2581highest": 6628,
  "\u2581Hav": 6629,
  "\u2581goals": 6630,
  "\u2581Hmm": 6631,
  "\u2581criminal": 6632,
  "\u2581\u514b\u670d": 6633,
  "\u2581nearby": 6634,
  "\u2581publications": 6635,
  "\u2581smell": 6636,
  "\u2581\u7279\u5fb4": 6637,
  "\u2581\u8cc7\u6599": 6638,
  "\u69d8\u306b": 6639,
  "\u2581sacrifices": 6640,
  "\u2581\u3042\u305d\u3053": 6641,
  "ko": 6642,
  "\u2581\u8aa4": 6643,
  "\u2581expressions": 6644,
  "\u30ac\u30b9": 6645,
  "\u2581describes": 6646,
  "\u2581\u60b2\u3057\u307f": 6647,
  "\u5e78\u904b": 6648,
  "\u2581closely": 6649,
  "\u2581secular": 6650,
  "\u2581\u3053\u306e\u3088\u3046\u306a": 6651,
  "\u2581\u3055\u3089\u3055": 6652,
  "\u2581\u305d\u306e\u307e\u307e": 6653,
  "\u2581\u6210\u3057\u9042\u3052": 6654,
  "\u2581\u6210\u308b": 6655,
  "ld": 6656,
  "\u2581Henry": 6657,
  "\u2581friendship": 6658,
  "\u2581\u53eb\u3073": 6659,
  "\u697d\u5712": 6660,
  "\u7cfb": 6661,
  "\u2581additional": 6662,
  "\u2581\u89aa\u65cf": 6663,
  "\u2581\u904b": 6664,
  "\u2581Alex": 6665,
  "\u2581exposed": 6666,
  "\u2581lucky": 6667,
  "\u7f6e\u3044\u3066": 6668,
  "\u2581Dis": 6669,
  "\u2581Furthermore": 6670,
  "\u2581\u3055\u3055\u3052\u308b": 6671,
  "\u2581\u308f": 6672,
  "\u2581\u5236\u5fa1": 6673,
  "They": 6674,
  "\u2581Land": 6675,
  "\u2581recall": 6676,
  "\u2581roof": 6677,
  "\u2581shop": 6678,
  "\u2581\u795e\u5b66": 6679,
  "\u5229": 6680,
  "\u2581Way": 6681,
  "\u2581\u53d7": 6682,
  "\u2581\u65ad": 6683,
  "\u2581\u8cbb\u7528": 6684,
  "\u4efb\u305b": 6685,
  "\u601d\u3048": 6686,
  "That": 6687,
  "not": 6688,
  "\u2581block": 6689,
  "\u2581buildings": 6690,
  "\u2581hole": 6691,
  "\u6226\u3044": 6692,
  "\u66dc\u65e5": 6693,
  "\u8208\u5473": 6694,
  "\u2581\u30a8\u30a4\u30ba": 6695,
  "\u2581\u5408\u308f\u305b": 6696,
  "\u2581\u9020\u3089": 6697,
  "\u2581hang": 6698,
  "\u2581immorality": 6699,
  "\u2581limit": 6700,
  "\u2581reaction": 6701,
  "\u2581\u7acb\u3064": 6702,
  "po": 6703,
  "\u2581\u62db\u5f85": 6704,
  "\u2581\u9928": 6705,
  "\u2581Little": 6706,
  "\u2581noise": 6707,
  "\u7269\u8a9e": 6708,
  "\u258124.": 6709,
  "\u3050\u3089\u3044": 6710,
  "\u754c": 6711,
  "\u2581\u30d4\u30fc\u30bf\u30fc": 6712,
  "\u2581\u547c\u3073": 6713,
  "\u52aa\u529b": 6714,
  "\u2581hotel": 6715,
  "\u2581invisible": 6716,
  "\u2581\u7948": 6717,
  "\u3092\u8868\u793a": 6718,
  "\u2581Catholics": 6719,
  "\u2581\u3048\u3063": 6720,
  "All": 6721,
  "\u2581lunch": 6722,
  "\u2581\u793c\u62dd": 6723,
  "\u5207\u308a": 6724,
  "\u611b\u3057": 6725,
  "\u2581features": 6726,
  "\u2581sending": 6727,
  "\u2581urged": 6728,
  "\u2581emotions": 6729,
  "\u2581\u5206\u88c2": 6730,
  "\u2581\u5f37\u3081": 6731,
  "\u30b5\u30f3": 6732,
  "\u2581\u3086\u3048": 6733,
  "\u2581\u5263": 6734,
  "\u2581\u5e8a": 6735,
  "org": 6736,
  "\u2581Faith": 6737,
  "}": 6738,
  "\u2581\u30de\u30bf": 6739,
  "\u2581\u50be\u3051": 6740,
  "\u2581\u6df7\u4e71": 6741,
  "\u52b9\u679c": 6742,
  "\u2581burn": 6743,
  "\u2581copies": 6744,
  "\u2581programs": 6745,
  "\u6e90": 6746,
  "\u2581Joshua": 6747,
  "\u2581located": 6748,
  "\u30a8\u30cd\u30eb\u30ae\u30fc": 6749,
  "\u2581finds": 6750,
  "\u2581solid": 6751,
  "\u2581\u623b\u308b": 6752,
  "\u2581\u8b66\u5b98": 6753,
  "\u308b\u3053\u3068": 6754,
  "\u2581impact": 6755,
  "\u2581\u8cea": 6756,
  "\u2581commit": 6757,
  "\u2581\u307f\u306a\u3057": 6758,
  "\u2581\u30c8\u30f3": 6759,
  "\u2581\u96c6\u4e2d": 6760,
  "\u2581Looks": 6761,
  "\u2581\u30d9\u30f3": 6762,
  "\u2581\u767d": 6763,
  "\u6211": 6764,
  "\u2581\u5b9f\u884c": 6765,
  "\u3042\u306a\u305f\u65b9": 6766,
  "\u7d9a\u3051\u308b": 6767,
  "\u2581\u30ac\u30b9": 6768,
  "\u2581\u5217\u738b": 6769,
  "\u30b5\u30a4\u30ba": 6770,
  "\u6b7b\u306b": 6771,
  "\u2581fought": 6772,
  "\u2581sets": 6773,
  "\u5e0c\u671b": 6774,
  "pro": 6775,
  "\u2581Again": 6776,
  "\u2581\u30bf": 6777,
  "\u2581acceptable": 6778,
  "\u2581reject": 6779,
  "\u30d4": 6780,
  "\u4e0d\u660e": 6781,
  "\u62bc\u3057": 6782,
  "\u6765\u4e16": 6783,
  "\u2581preached": 6784,
  "\u2581disaster": 6785,
  "\u2581\u308f\u305f\u308b": 6786,
  "\u30ec\u30d9\u30eb": 6787,
  "\u5b9f\u9a13": 6788,
  "\u2581remaining": 6789,
  "\u5357": 6790,
  "\u2581Sa": 6791,
  "\u2581refuse": 6792,
  "\u2581\u5c40": 6793,
  "\u2581\u5f37\u5236": 6794,
  "\u2581heed": 6795,
  "\u2581signal": 6796,
  "\u2581\u6628": 6797,
  "\u2581resulted": 6798,
  "\u306f\u304a": 6799,
  "\u2581link": 6800,
  "\u2581\u5b88\u308a": 6801,
  "Yes": 6802,
  "\u2581steal": 6803,
  "\u2581\u60aa\u304f": 6804,
  "vi": 6805,
  "\u2581storm": 6806,
  "\u2581\u6226": 6807,
  "\u4eab\u53d7": 6808,
  "\u2581Clearly": 6809,
  "\u2581Isaac": 6810,
  "\u2581depends": 6811,
  "\u2581plain": 6812,
  "\u2581policy": 6813,
  "\u6bdb": 6814,
  "\u88cf": 6815,
  "ping": 6816,
  "\u2581marvelous": 6817,
  "\u2581\u8a89\u308c": 6818,
  "\u9032": 6819,
  "\u2581obedient": 6820,
  "\u2581unit": 6821,
  "\u671b\u3080": 6822,
  "\u8a3c": 6823,
  "set": 6824,
  "\u2581AND": 6825,
  "\u2581slowly": 6826,
  "\u2581entirely": 6827,
  "\u2581\u7d20": 6828,
  "\u7a4d\u6975": 6829,
  "16": 6830,
  "\u2581attempt": 6831,
  "\u2581engage": 6832,
  "\u2581\u53ce\u7a6b": 6833,
  "\u2581\u671b\u3080": 6834,
  "\u2581\u75c7\u72b6": 6835,
  "\u3060\u3081": 6836,
  "Why": 6837,
  "\u2581Find": 6838,
  "\u2581exchange": 6839,
  "\u2581\u30d1": 6840,
  "\u2581Mar": 6841,
  "\u2581UN": 6842,
  "\u2581doors": 6843,
  "\u2581\u8077": 6844,
  "tion": 6845,
  "\u2581\u7537\u5973": 6846,
  "with": 6847,
  "\u2581messages": 6848,
  "\u304d\u3063\u3068": 6849,
  "\u590f": 6850,
  "\u6c7a\u5b9a": 6851,
  "\u2581companies": 6852,
  "\u2581farm": 6853,
  "\u2581pregnant": 6854,
  "\u2581somehow": 6855,
  "\u2581\u56e3\u4f53": 6856,
  "\u2581\u8ecd\u968a": 6857,
  "\u2581debt": 6858,
  "\u2581\u51fa\u3059": 6859,
  "\u2581\u601d\u3044\u3084\u308a": 6860,
  "\u58f2\u3063": 6861,
  "\u8d64": 6862,
  "\u2581distress": 6863,
  "\u2581fuel": 6864,
  "\u2581\u7537\u5b50": 6865,
  "\u7a74": 6866,
  "\u308b\u3053\u3068\u306b": 6867,
  "\u2581Sarah": 6868,
  "\u2581identified": 6869,
  "\u7279\u5225": 6870,
  "\u5f93\u3046": 6871,
  "\u2581concluded": 6872,
  "\u2581spending": 6873,
  "\u2581\u5236\u9650": 6874,
  "\u2581approval": 6875,
  "\u2581bunch": 6876,
  "\u305d\u308c\u305e\u308c": 6877,
  "\u2581bones": 6878,
  "\u2581strike": 6879,
  "\u2581\u30c1\u30fc\u30e0": 6880,
  "\u2581\u4f9d\u5b58": 6881,
  "\u3057\u304b\u3057": 6882,
  "\u2581Big": 6883,
  "\u2581Whether": 6884,
  "\u2581believing": 6885,
  "\u2581encouraging": 6886,
  "\u2581peaceful": 6887,
  "\u2581possibility": 6888,
  "\u30c7\u30fc\u30bf\u3092": 6889,
  "\u2581$1": 6890,
  "\u2581costs": 6891,
  "\u2581\u3057\u3082\u3079": 6892,
  "\u2581\u9023": 6893,
  "\u30d1\u30f3": 6894,
  "\u2581Ar": 6895,
  "\u2581eggs": 6896,
  "\u2581indicated": 6897,
  "\u6c17\u5206": 6898,
  "ud": 6899,
  "\u258120,": 6900,
  "\u2581\u30c0": 6901,
  "\u672a": 6902,
  "\u2581gather": 6903,
  "\u2581habits": 6904,
  "\u2581sports": 6905,
  "\u2581\u30e1\u30c3\u30bb\u30fc\u30b8": 6906,
  "\u2581\u61f2\u3089\u3057\u3081": 6907,
  "\u2581\u30d3": 6908,
  "\u2581\u30d8\u30d6": 6909,
  "\u306b\u95a2\u3057\u3066": 6910,
  "\u2581hatred": 6911,
  "\u2581\u8a73\u7d30": 6912,
  "\u7948": 6913,
  "Comm": 6914,
  "\u2581creature": 6915,
  "\u2581habit": 6916,
  "\u2581\u30b7": 6917,
  "\u5c11\u5e74": 6918,
  "\u2581prospect": 6919,
  "\u2581sought": 6920,
  "gu": 6921,
  "\u2581invitation": 6922,
  "\u2581satisfaction": 6923,
  "\u2581mad": 6924,
  "\u2581survey": 6925,
  "\u2581\u9a5a\u304d": 6926,
  "\u7d44": 6927,
  "\u2581\u3042\u305a\u304b\u308b": 6928,
  "\u30af\u30eb\u30a2\u30fc\u30f3": 6929,
  "\u8cb8\u3057": 6930,
  "\u2581bond": 6931,
  "\u2581completed": 6932,
  "\u2581\u3068\u3044\u3046\u306e\u306f": 6933,
  "\u2581meters": 6934,
  "\u2581\u3053\u3089": 6935,
  "\u2581\u4e8b\u60c5": 6936,
  "\u2581\u5343": 6937,
  "\u306c": 6938,
  "\u8fd1\u3044": 6939,
  "13": 6940,
  "ning": 6941,
  "\u2581sovereignty": 6942,
  "\u2581\u30ae\u30ec\u30a2\u30c7": 6943,
  "\u2581\u4e88": 6944,
  "\u2581\u539f\u5b50": 6945,
  "\u2581\u7a74": 6946,
  "\u53ef\u80fd\u306a": 6947,
  "\u2581Court": 6948,
  "\u2581oh": 6949,
  "ts": 6950,
  "\u2581600": 6951,
  "\u2581compassion": 6952,
  "\u2581entitled": 6953,
  "\u2581visible": 6954,
  "\u2581\u65b9\u5411": 6955,
  "\u2581\u6628\u5e74": 6956,
  "ron": 6957,
  "\u2581chemical": 6958,
  "\u2581director": 6959,
  "\u2581virus": 6960,
  "\u2581hoping": 6961,
  "\u2581pulled": 6962,
  "\u2581selfish": 6963,
  "\u2581instructions": 6964,
  "\u2581\u7dcf": 6965,
  "\u305b\u3088": 6966,
  "\u2581levels": 6967,
  "\u2581print": 6968,
  "\u2581\u30bb": 6969,
  "\u52a0": 6970,
  "\u2581\u72ec": 6971,
  "\u2581\u5dfb": 6972,
  "\u2581title": 6973,
  "\u2581\u304a\u6bcd\u3055\u3093": 6974,
  "\u5165\u624b": 6975,
  "\u5f37\u304f": 6976,
  "\u671f\u5f85": 6977,
  "\u2581\u5acc": 6978,
  "\u2581\u8868\u308f\u308c": 6979,
  "\u2581emergency": 6980,
  "\u2581\u5ca9": 6981,
  "\u2581abandoned": 6982,
  "\u2581ships": 6983,
  "\u2581tool": 6984,
  "\u2581\u30eb": 6985,
  "\u3089\u3093": 6986,
  "\u5909\u63db": 6987,
  "\u751f\u7269": 6988,
  "\u2581Phil": 6989,
  "\u2581owe": 6990,
  "\u2581tons": 6991,
  "\u2581\u9000\u3051": 6992,
  "\u30a8\u30eb": 6993,
  "14": 6994,
  "\u2581listed": 6995,
  "\u3082\u3089": 6996,
  "\u2581\u54f2\u5b66": 6997,
  "\u2581lab": 6998,
  "\u2581\u78ba\u5b9f": 6999,
  "\u2581harvest": 7000,
  "\u2581\u5f53\u305f\u308a": 7001,
  "\u3082\u3089\u3044": 7002,
  "\u30c1\u30e3\u30f3\u30b9": 7003,
  "\u2581dogs": 7004,
  "\u2581stake": 7005,
  "\u72a0\u7272": 7006,
  "\u8d77\u3053\u308b": 7007,
  "\u2581\u30ed\u30de": 7008,
  "\u2581\u691c\u67fb": 7009,
  "\u53c2\u52a0": 7010,
  "cr": 7011,
  "\u2581FBI": 7012,
  "\u2581accomplish": 7013,
  "\u2581fathers": 7014,
  "\u2581\u898b\u3044\u3060\u3057": 7015,
  "\u30dd": 7016,
  "\u30ed\u30c3\u30af": 7017,
  "\u592a\u967d": 7018,
  "\u2581\u6539\u5584": 7019,
  "\u2581\u82e6\u75db": 7020,
  "\u306a\u304f\u306a\u308b": 7021,
  "\u2581argument": 7022,
  "\u2581confident": 7023,
  "\u2581\u5b8c": 7024,
  "\u2581liked": 7025,
  "\u2581shoes": 7026,
  "\u2581sugar": 7027,
  "\u2581union": 7028,
  "\u2581\u30d4": 7029,
  "\u2581\u53cd\u6620": 7030,
  "\u2581\u60b2\u3057": 7031,
  "\u2581\u9078\u3070": 7032,
  "\u4f4f\u3080": 7033,
  "\u7720": 7034,
  "\u793a": 7035,
  "\u2581Had": 7036,
  "\u2581returns": 7037,
  "\u2581\u8a08\u7b97": 7038,
  "\u79d1\u5b66": 7039,
  "\u79d1": 7040,
  "\u2581Star": 7041,
  "\u539f\u56e0": 7042,
  "ise": 7043,
  "\u2581\u30a6": 7044,
  "\u2581\u6050\u6016": 7045,
  "\u6848": 7046,
  "\u2581excuse": 7047,
  "\u2581stands": 7048,
  "\u2581\u6a19\u6e96": 7049,
  "\u2581\u77f3\u6cb9": 7050,
  "\u2581\u3046\u3048": 7051,
  "\u5186": 7052,
  "\u6b63\u898f": 7053,
  "\u2581directed": 7054,
  "\u2581strengthen": 7055,
  "\u4fdd\u8b77": 7056,
  "\u2581spite": 7057,
  "\u30d0\u30f3": 7058,
  "\u75c5\u9662": 7059,
  "\u2581\u5275\u4e16": 7060,
  "\u6253\u3061": 7061,
  "\u6761\u4ef6": 7062,
  "\u9b54\u6cd5": 7063,
  "\u2581\u7d9a\u304d": 7064,
  "\u3057\u305f\u6642": 7065,
  "\u533b\u8005": 7066,
  "\u2581Huh": 7067,
  "\u2581staff": 7068,
  "\u2581struggle": 7069,
  "\u2581\u6761\u4ef6": 7070,
  "\u2581la": 7071,
  "\u53e4\u3044": 7072,
  "\u258149": 7073,
  "\u2581colors": 7074,
  "\u2581pioneers": 7075,
  "\u2581\u6e05\u3044": 7076,
  "\u6cbb\u7642": 7077,
  "\u2581Se": 7078,
  "\u2581arranged": 7079,
  "\u2581ignore": 7080,
  "\u2581ruler": 7081,
  "\u2581\u30de\u30b8": 7082,
  "\u30ed\u30b0": 7083,
  "\u9664": 7084,
  "\u25812000": 7085,
  "\u2581cure": 7086,
  "\u2581react": 7087,
  "\u2581telephone": 7088,
  "\u30ad\u30f3": 7089,
  "\u610f\u601d": 7090,
  "\u697d\u3057": 7091,
  "\u9000": 7092,
  "TED": 7093,
  "\u2581Pet": 7094,
  "\u2581\u3081": 7095,
  "\u2581\u30ad": 7096,
  "\u2581\u643a\u5e2f": 7097,
  "\u660e\u65e5": 7098,
  "\u8ecd\u4e8b": 7099,
  "\u2581Imagine": 7100,
  "\u2581citizens": 7101,
  "\u2581experts": 7102,
  "\u2581Leave": 7103,
  "\u2581\u7dca\u5f35": 7104,
  "\u805e\u3053\u3048": 7105,
  "\u258118)": 7106,
  "\u30cb\u30e5\u30fc\u30b9": 7107,
  "\u2581element": 7108,
  "\u3063\u304b\u308a": 7109,
  "\u2581(19": 7110,
  "\u2581Happy": 7111,
  "\u2581immoral": 7112,
  "\u2581\u8a73\u3057\u304f": 7113,
  "\u2581\u53f8\u4f1a": 7114,
  "\u2581\u8a00": 7115,
  "\u2581\u8fce\u3048": 7116,
  "\u2581\u9001\u308a": 7117,
  "\u30c4\u30fc\u30eb": 7118,
  "\u258118,": 7119,
  "Read": 7120,
  "\u258151": 7121,
  "\u2581Certainly": 7122,
  "\u2581arrest": 7123,
  "\u2581\u5bfe\u7167": 7124,
  "\u3042\u307e\u308a": 7125,
  "\u2581Old": 7126,
  "\u2581commercial": 7127,
  "\u2581disciple": 7128,
  "\u2581\u4eba\u6c17": 7129,
  "\u304b\u306a\u308a": 7130,
  "18": 7131,
  "\u2581Queen": 7132,
  "\u2581endurance": 7133,
  "\u767a\u751f": 7134,
  "Compare": 7135,
  "ID": 7136,
  "\u2581explanation": 7137,
  "\u2581marked": 7138,
  "\u2581\u5f81\u670d": 7139,
  "\u2581Often": 7140,
  "\u6210\u9577": 7141,
  "\u623b\u308a": 7142,
  "\u98f2\u3093": 7143,
  "\u2581refer": 7144,
  "\u2581\u5931\u308f": 7145,
  "\u2581\u60aa\u884c": 7146,
  "\u30a2\u30a4\u30c7\u30a2": 7147,
  "\u2581circuit": 7148,
  "\u2581verily": 7149,
  "\u2581providing": 7150,
  "\u2581\u52d5\u304d": 7151,
  "\u3068\u3044\u3046\u306e\u306f": 7152,
  "\u30a2\u30eb\u30de\u30f3": 7153,
  "\u2581Version": 7154,
  "\u2581husbands": 7155,
  "\u2581\u5c11\u306a\u3044": 7156,
  "\u2581\u6c11\u65cf": 7157,
  "Be": 7158,
  "\u2581Death": 7159,
  "\u2581breaking": 7160,
  "\u2581\u53d6\u308c": 7161,
  "\u4e00\u5207": 7162,
  "\u65e2\u306b": 7163,
  "\u2581bright": 7164,
  "\u2581dwell": 7165,
  "\u2581plenty": 7166,
  "\u2581\u5b89\u5fc3": 7167,
  "\u2581\u6b20\u3051": 7168,
  "\u5f85\u3066": 7169,
  "\u8cb0": 7170,
  "\u2581goodness": 7171,
  "\u2581\u5927\u304d\u3044": 7172,
  "\u30d5\u30e9\u30f3\u30b9": 7173,
  "\u8af8": 7174,
  "\u2581Bring": 7175,
  "\u2581touched": 7176,
  "\u2581\u968a": 7177,
  "ring": 7178,
  "\u2581capacity": 7179,
  "\u2581politics": 7180,
  "\u2581\u307e\u3063\u305f\u304f": 7181,
  "\u7d0d\u5f97": 7182,
  "\u2581Set": 7183,
  "\u2581Walter": 7184,
  "\u2581\u5100\u5f0f": 7185,
  "\u3042\u3089\u3086\u308b": 7186,
  "\u2581Parents": 7187,
  "\u2581ID": 7188,
  "\u2581essentially": 7189,
  "\u8a31\u53ef": 7190,
  "\u2581Jim": 7191,
  "\u2581\u30e8\u30b7\u30e5\u30a2": 7192,
  "\u3044\u306a\u304b": 7193,
  "\u5144": 7194,
  "\u767d": 7195,
  "\u2581fulfill": 7196,
  "\u30cd\u30c3\u30c8": 7197,
  "\u5b66\u8005": 7198,
  "\u2581lights": 7199,
  "\u3060\u3063\u305f\u3089": 7200,
  "\u3082\u306e\u3067\u3042\u308b": 7201,
  "\u675f": 7202,
  "\u826f": 7203,
  "\u88fd": 7204,
  "\u2581None": 7205,
  "\u2581kidding": 7206,
  "\u2581stuck": 7207,
  "\u2581\u304b\u3051\u308b": 7208,
  "\u30c1\u30e3": 7209,
  "\u258125.": 7210,
  "\u2581\u6bdb": 7211,
  "\u4f7f\u308f": 7212,
  "ov": 7213,
  "\u2581November": 7214,
  "\u6b62": 7215,
  "ung": 7216,
  "\u2581mail": 7217,
  "\u2581\u4f5c\u7528": 7218,
  "\u2581\u8b1b\u6f14": 7219,
  "\u2581oxygen": 7220,
  "\u2581row": 7221,
  "\u2581\u306e\u3061": 7222,
  "\u8972": 7223,
  "\u2581pollution": 7224,
  "\u2581\u5730\u4e0b": 7225,
  "\u8b77": 7226,
  "\u2581\u7fbd": 7227,
  "\u2581Gen": 7228,
  "\u2581dreams": 7229,
  "\u2581origin": 7230,
  "\u6c42\u3081\u308b": 7231,
  "Yeah": 7232,
  "\u2581holds": 7233,
  "\u2581\u3064\u3065\u3051": 7234,
  "\u2581\u30c7\u30a3": 7235,
  "\u6148\u60b2\u6df1": 7236,
  "za": 7237,
  "\u2581central": 7238,
  "\u8d66\u3057": 7239,
  "19": 7240,
  "\u2581Ne": 7241,
  "\u2581\u30d1\u30e9\u30c0\u30a4\u30b9": 7242,
  "\u3069\u3053\u308d": 7243,
  "\u6e80\u305f\u3055": 7244,
  "\u2581section": 7245,
  "\u30a2\u30eb": 7246,
  "\u611f\u3058\u308b": 7247,
  "\u90aa": 7248,
  "\u2581opportunities": 7249,
  "\u2581Car": 7250,
  "\u2581neck": 7251,
  "\u2581whereas": 7252,
  "\u3064\u3051\u308b": 7253,
  "\u8a00\u3044\u305f": 7254,
  "\u2581Damn": 7255,
  "\u8feb": 7256,
  "ard": 7257,
  "les": 7258,
  "\u2581insight": 7259,
  "\u2581nervous": 7260,
  "\u6750": 7261,
  "\u983c\u3080": 7262,
  "vo": 7263,
  "\u2581armies": 7264,
  "\u2581prime": 7265,
  "\u2581\u5e30\u308b": 7266,
  "\u666e\u901a": 7267,
  "\u8a18\u61b6": 7268,
  "\u2581Richard": 7269,
  "\u2581humility": 7270,
  "\u2581\u6307": 7271,
  "\u2581\u88cf": 7272,
  "\u539f": 7273,
  "\u2581\u53cd\u9006": 7274,
  "\u2581\u5ba4": 7275,
  "\u5927\u7d71\u9818": 7276,
  "\u2581considering": 7277,
  "\u7cbe\u795e": 7278,
  "\u9b5a": 7279,
  "act": 7280,
  "\u2581Know": 7281,
  "\u2581\u611b\u3055": 7282,
  "\u2581\u6b7b\u306b": 7283,
  "\u3051\u3070": 7284,
  "\u53d6\u5f15": 7285,
  "\u53d6\u5f97": 7286,
  "\u5584\u884c": 7287,
  "\u9858": 7288,
  "off": 7289,
  "\u2581nose": 7290,
  "\u2581mile": 7291,
  "\u2581\u69cb\u6210": 7292,
  "\u30c3\u30af\u30b9": 7293,
  "\u5206\u3051": 7294,
  "\u81ea\u52d5": 7295,
  "Go": 7296,
  "\u2581complicated": 7297,
  "\u2581saving": 7298,
  "\u2581\u305d\u3044": 7299,
  "\u2581\u305d\u3070": 7300,
  "\u30b8\u30e5": 7301,
  "mer": 7302,
  "\u2581east": 7303,
  "\u2581\u30bb\u30f3\u30c1": 7304,
  "\u5b57": 7305,
  "\u2581\u6b8b\u3057": 7306,
  "\u25811973": 7307,
  "\u2581Union": 7308,
  "\u2581successfully": 7309,
  "\u25816,000": 7310,
  "\u2581\u618e\u3057\u307f": 7311,
  "Cause": 7312,
  "\u2581Ta": 7313,
  "\u2581sentence": 7314,
  "\u2581\u53f8\u6559": 7315,
  "\u30a8\u30f3": 7316,
  "\u30e6\u30fc": 7317,
  "\u73fe\u308c": 7318,
  "\u2581evidently": 7319,
  "\u2581host": 7320,
  "\u2581\u308f\u304c": 7321,
  "\u3082\u3063\u3066": 7322,
  "\u5b66\u751f": 7323,
  "\u751f\u547d": 7324,
  "\u2581materials": 7325,
  "\u2581shepherd": 7326,
  "\u2581\u4e2d\u592e": 7327,
  "nd": 7328,
  "\u2581burden": 7329,
  "\u2581\u8a31\u53ef": 7330,
  "\u60aa\u304f": 7331,
  "ki": 7332,
  "IN": 7333,
  "\u2581Ms": 7334,
  "\u2581USA": 7335,
  "\u2581symbol": 7336,
  "\u2581visiting": 7337,
  "\u2581\u30b8\u30a7\u30fc\u30f3": 7338,
  "\u2581\u9054\u6210": 7339,
  "\u6df1\u3044": 7340,
  "ag": 7341,
  "\u258147": 7342,
  "\u2581united": 7343,
  "\u96a3": 7344,
  "iv": 7345,
  "\u2581se": 7346,
  "\u30f3\u30c9\u30a6": 7347,
  "\u5c0f\u3055\u3044": 7348,
  "\u2581anxiety": 7349,
  "\u2581locked": 7350,
  "\u53cd\u5bfe": 7351,
  "\u2581Run": 7352,
  "\u2581coast": 7353,
  "\u2581\u5426\u5b9a": 7354,
  "\u964d\u308a": 7355,
  "\u2581Five": 7356,
  "\u2581checked": 7357,
  "\u2581\u30bd\u9023": 7358,
  "\u2581\u7dad\u6301": 7359,
  "\u2581button": 7360,
  "\u2581\u3042\u3052": 7361,
  "\u2581\u3044\u3064\u304b": 7362,
  "\u2581\u6255\u3044": 7363,
  "\u5909\u3048\u308b": 7364,
  "\u3042\u3052\u308b": 7365,
  "\u8b00": 7366,
  "\u2581Detective": 7367,
  "\u2581witnessing": 7368,
  "\u2581\u3056\u308b": 7369,
  "\u2581\u5171\u901a": 7370,
  "\u4ef0\u305b": 7371,
  "\u53d6": 7372,
  "500": 7373,
  "\u2581comfortable": 7374,
  "\u2581refuge": 7375,
  "\u2581\u8868\u660e": 7376,
  "\u2581introduced": 7377,
  "ja": 7378,
  "\u2581mature": 7379,
  "\u2581researchers": 7380,
  "\u2581\u6570\u3005": 7381,
  "\u306b\u304a\u3051\u308b": 7382,
  "\u2581entertainment": 7383,
  "\u7834": 7384,
  "\u2581120": 7385,
  "\u2581Co": 7386,
  "\u2581\u3061\u3083\u3093": 7387,
  "\u2581\u5730\u9762": 7388,
  "\u2581\u6a2a": 7389,
  "\u304f\u3066": 7390,
  "\u2581primary": 7391,
  "\u2581\u30ea\u30b9\u30c8": 7392,
  "\u2581\u5348\u5f8c": 7393,
  "\u258172": 7394,
  "\u2581Joe": 7395,
  "\u2581\u51fa\u6765": 7396,
  "\u2581\u751f\u307e\u308c": 7397,
  "\u2581\u767a\u751f": 7398,
  "\u3063\u304d": 7399,
  "\u30af\u30ea\u30c3\u30af": 7400,
  "io": 7401,
  "\u2581\u63a8\u5b9a": 7402,
  "\u2581\u898b\u3064\u3051\u308b": 7403,
  "\u3084\u308c": 7404,
  "\u30de\u30b9": 7405,
  "\u7f8e\u54b2": 7406,
  "\u2581staying": 7407,
  "\u2581\u96c6\u307e": 7408,
  "ee": 7409,
  "\u2581differences": 7410,
  "\u2581\u8d77\u3053\u3057": 7411,
  "\u2581\u9023\u90a6": 7412,
  "are": 7413,
  "\u2581caring": 7414,
  "\u2581establish": 7415,
  "\u2581stronger": 7416,
  "\u2581\u80cc": 7417,
  "\u6559\u5f92": 7418,
  "\u70c8": 7419,
  "ek": 7420,
  "\u258114;": 7421,
  "\u2581equals": 7422,
  "\u2581strive": 7423,
  "\u2581\u6570\u5b57": 7424,
  "\u3042\u3093\u305f": 7425,
  "\u6771": 7426,
  "\u2581falling": 7427,
  "\u2581yellow": 7428,
  "\u534a\u5206": 7429,
  "\u2581likewise": 7430,
  "\u2581\u3055\u3093": 7431,
  "\u2581\u7bb1": 7432,
  "\u2581description": 7433,
  "\u2581\u4fe1\u6761": 7434,
  "\u63a5\u7d9a": 7435,
  "\u958b\u767a": 7436,
  "\u2581\u30e1": 7437,
  "\u2581\u6551\u51fa": 7438,
  "\u90fd\u5e02": 7439,
  "\u2581outstanding": 7440,
  "\u2581sickness": 7441,
  "\u2581Science": 7442,
  "\u2581threatened": 7443,
  "\u2581\u6f5c": 7444,
  "\u5bfe": 7445,
  "\u6b74\u53f2": 7446,
  "min": 7447,
  "\u2581View": 7448,
  "\u2581\u4f1a\u3044": 7449,
  "\u2581\u9244": 7450,
  "\u554f\u308f": 7451,
  "\u683c": 7452,
  "\u7559": 7453,
  "\u2581creating": 7454,
  "\u2581hurry": 7455,
  "\u547c\u3073": 7456,
  "ran": 7457,
  "year": 7458,
  "\u2581pleasant": 7459,
  "\u2581\u6d3b\u7528": 7460,
  "\u53cd\u5fdc": 7461,
  "\u691c": 7462,
  "\u76e3\u8996": 7463,
  "\u2581Russia": 7464,
  "\u2581Select": 7465,
  "\u2581load": 7466,
  "\u2581relationships": 7467,
  "\u2581\u3044\u308f\u3086\u308b": 7468,
  "\u2581\u30a6\u30a3": 7469,
  "\u2581prophetic": 7470,
  "\u2581\u30ab\u30ea\u30d5\u30a9\u30eb\u30cb\u30a2": 7471,
  "\u2581\u8a87\u308a": 7472,
  "\u0561": 7473,
  "\u25811974": 7474,
  "\u2581rivers": 7475,
  "\u8907\u96d1": 7476,
  "\u2581multiply": 7477,
  "\u2581reveals": 7478,
  "\u2581loud": 7479,
  "\u2581\u30db": 7480,
  "\u8b83\u3048": 7481,
  "\u2581biggest": 7482,
  "\u30d5\u30a3": 7483,
  "\u66f8\u304f": 7484,
  "\u2581cultivate": 7485,
  "\u2581\u6cd5\u738b": 7486,
  "\u2581Nor": 7487,
  "\u2581pair": 7488,
  "\u2581\u5893": 7489,
  "\u2581\u8150\u6557": 7490,
  "\u8ffd": 7491,
  "\u2581deaths": 7492,
  "\u2581identity": 7493,
  "\u2581replace": 7494,
  "\u2581\u5931\u3044": 7495,
  "\u2581\u5f90": 7496,
  "\u2581\u65e5\u66dc": 7497,
  "\u301c": 7498,
  "\u2581(2)": 7499,
  "\u2581Republic": 7500,
  "\u2581Russian": 7501,
  "\u2581fruits": 7502,
  "\u2581pursue": 7503,
  "\u2581abundance": 7504,
  "\u2581admitted": 7505,
  "\u2581\u30c8\u30e9\u30c3\u30af": 7506,
  "\u2581\u98f2\u3080": 7507,
  "\u5b09\u3057": 7508,
  "\u25811945": 7509,
  "\u2581\u307b\u3057\u3044": 7510,
  "\u80f8": 7511,
  "\u2581\u958b\u3051": 7512,
  "\u306e\u307e\u307e": 7513,
  "\u5224\u65ad": 7514,
  "\u2581\u6a29\u529b": 7515,
  "\u2581\u6d41": 7516,
  "\u80a2": 7517,
  "\u2581tools": 7518,
  "\u2581\u30b8\u30a7\u30a4": 7519,
  "\u2581\u611a\u304b": 7520,
  "\u30af\u30b9": 7521,
  "\u80cc\u5f8c": 7522,
  "let": 7523,
  "\u2581119": 7524,
  "\u2581assured": 7525,
  "\u2581district": 7526,
  "\u2581\u305d": 7527,
  "\u2581\u5f37": 7528,
  "\u5411": 7529,
  "\u2581fixed": 7530,
  "\u2581\u98df": 7531,
  "\u738b\u56fd": 7532,
  "\u2581soft": 7533,
  "\u2581Nick": 7534,
  "\u2581drawing": 7535,
  "\u2581\u30d8\u30a4": 7536,
  "\u3078\u3068": 7537,
  "\u682a": 7538,
  "\u2581Tokyo": 7539,
  "\u2581talks": 7540,
  "\u2581\u30b8\u30e7\u30fc\u30b8": 7541,
  "\u2581\u89d2": 7542,
  "\u30a2\u30fc": 7543,
  "\u60c5": 7544,
  "ana": 7545,
  "\u2581brief": 7546,
  "\u2581context": 7547,
  "\u2581praying": 7548,
  "\u2581\u30e6\u30fc": 7549,
  "\u3068\u3053": 7550,
  "\u2581riches": 7551,
  "\u2581\u6d88": 7552,
  "\u3044\u3060": 7553,
  "Oh": 7554,
  "\u2581rulers": 7555,
  "\u2581\u30da": 7556,
  "\u2581\u8ddd\u96e2": 7557,
  "ight": 7558,
  "\u2581circle": 7559,
  "\u30ad\u30df": 7560,
  "\u4e00\u81f4": 7561,
  "\u2581Compare": 7562,
  "\u2581follows": 7563,
  "\u2581worthy": 7564,
  "\u2581\u53d6\u3089": 7565,
  "\u77ac\u9593": 7566,
  "As": 7567,
  "\u2581\u3044\u304d": 7568,
  "\u2581\u304b\u306d": 7569,
  "\u2581\u5927\u304d\u3055": 7570,
  "\u2581contribute": 7571,
  "\u2581asleep": 7572,
  "\u306a\u306e\u306b": 7573,
  "\u7406\u89e3\u3057": 7574,
  "\u2581Charles": 7575,
  "\u4f59": 7576,
  "\u904e\u3054\u3057": 7577,
  "\u2581selling": 7578,
  "\u2581status": 7579,
  "\u2581translated": 7580,
  "\u5ba2": 7581,
  "\u258119)": 7582,
  "\u2581inner": 7583,
  "\u2581\u68ee": 7584,
  "\u4fd7": 7585,
  "\u571f": 7586,
  "\u60f3": 7587,
  "\u2581height": 7588,
  "\u2581obtain": 7589,
  "\u2581\u304a\u304d\u3066": 7590,
  "\u30e1\u30fc\u30c8\u30eb": 7591,
  "\u2581Four": 7592,
  "\u2581\u6b69\u3080": 7593,
  "\u2581\u7b54\u3048\u308b": 7594,
  "\u5927\u5207": 7595,
  "\u970a": 7596,
  "\u2581cares": 7597,
  "\u2581doctrine": 7598,
  "\u2581\u3084\u3063\u3068": 7599,
  "\u2581\u62db": 7600,
  "\u50ac": 7601,
  "OR": 7602,
  "\u2581equation": 7603,
  "\u2581\u4e0d\u6b63": 7604,
  "\u2581narrow": 7605,
  "\u2581desert": 7606,
  "\u2581reaching": 7607,
  "\u2581sufficient": 7608,
  "\u2581tough": 7609,
  "\u2581\u30a4\u30f3": 7610,
  "SE": 7611,
  "\u2581mid": 7612,
  "\u2581\u52d5\u304f": 7613,
  "\u2581\u7f6e\u304f": 7614,
  "\u2581\u8986": 7615,
  "\u2581\u9ed2": 7616,
  "put": 7617,
  "\u2581figured": 7618,
  "\u2581unknown": 7619,
  "\u2581\u77ed\u3044": 7620,
  "log": 7621,
  "\u52e2": 7622,
  "\u2581\u8972": 7623,
  "\u7121\u99c4": 7624,
  "\u2581metal": 7625,
  "\u2581physically": 7626,
  "\u2581rare": 7627,
  "\u2581\u5efa\u7bc9": 7628,
  "\u2581\u80cc\u666f": 7629,
  "\u2581\u8ca0": 7630,
  "\u2581\u91cd\u3044": 7631,
  "\u2581facing": 7632,
  "\u2581\u3084\u3081\u308b": 7633,
  "\u2581\u9053\u7406": 7634,
  "\u2581\u9aea": 7635,
  "\u2581Page": 7636,
  "\u2581Truly": 7637,
  "\u2581jail": 7638,
  "\u51fa\u305b": 7639,
  "\u2581accomplished": 7640,
  "bar": 7641,
  "\u2581\u7802": 7642,
  "\u4e0a\u304c": 7643,
  "\u2581forgot": 7644,
  "\u2581perfectly": 7645,
  "\u2581principal": 7646,
  "\u2581web": 7647,
  "ice": 7648,
  "\u2581\"\u300e": 7649,
  "\u2581visitors": 7650,
  "\u2581\u5de3": 7651,
  "\u2581\u5e02\u5834": 7652,
  "\u2581Testament": 7653,
  "\u2581Turn": 7654,
  "\u2581multiple": 7655,
  "\u2581numerous": 7656,
  "\u2581\u9023\u5408": 7657,
  "\u25811972": 7658,
  "\u25812,3": 7659,
  "\u2581Readers": 7660,
  "\u2581fallen": 7661,
  "\u2581\u3042\u3044\u3060": 7662,
  "\u2581Translation": 7663,
  "\u2581conscious": 7664,
  "\u2581document": 7665,
  "\u2581singing": 7666,
  "\u5f01": 7667,
  "ified": 7668,
  "\u2581\u30a8\u30eb": 7669,
  "\u4fe1\u7528": 7670,
  "\u2581FOR": 7671,
  "\u2581Veri": 7672,
  "\u2581climate": 7673,
  "\u2581crying": 7674,
  "\u2581drunk": 7675,
  "\u2581motion": 7676,
  "ck": 7677,
  "\u2581Anything": 7678,
  "\u2581\u5b89": 7679,
  "\u2581\u5e73\u8861": 7680,
  "\u2581\u89b3": 7681,
  "\u4e00\u9023": 7682,
  "sen": 7683,
  "\u2581Human": 7684,
  "\u2581frequently": 7685,
  "\u2581\u4e73": 7686,
  "\u3066\u304a\u304d": 7687,
  "\u2581distribution": 7688,
  "\u2581\u52b1\u307f": 7689,
  "\u304b\u308f\u304b": 7690,
  "\u4ed5\u3048": 7691,
  "\u8349": 7692,
  "ible": 7693,
  "\u2581appreciated": 7694,
  "\u2581online": 7695,
  "\u3089\u305b\u308b": 7696,
  "\u30a6\u30b9": 7697,
  "\u2581February": 7698,
  "\u2581edge": 7699,
  "\u2581\u9577\u3055": 7700,
  "\u2581agreement": 7701,
  "\u2581guns": 7702,
  "\u2581route": 7703,
  "\u2581\u5408\u8a08": 7704,
  "\u5065\u5eb7": 7705,
  "\u2581Street": 7706,
  "\u2581bridge": 7707,
  "\u2581murdered": 7708,
  "\u2581survival": 7709,
  "\u3060\u308c": 7710,
  "hi": 7711,
  "\u2581crew": 7712,
  "\u2581\u30d9\u30c3\u30c9": 7713,
  "\u2581\u51fa\u3055": 7714,
  "\u2581\u5931\u3046": 7715,
  "\u2581Scripture": 7716,
  "\u2581Web": 7717,
  "\u2581attacks": 7718,
  "\u2581lo": 7719,
  "\u3093\u306a": 7720,
  "\u8a55\u4fa1": 7721,
  "\u9ed2": 7722,
  "\u2581hall": 7723,
  "\u2581survived": 7724,
  "\u2581\u5584\u826f": 7725,
  "\u3082\u3089\u3048": 7726,
  "\u629c\u3051": 7727,
  "\u2581Q": 7728,
  "\u2581custom": 7729,
  "\u2581\u3068\u3053\u3057": 7730,
  "\u2581\u3082\u3089\u3044": 7731,
  "\u2581\u66ae\u3089\u3057": 7732,
  "\u2581assistance": 7733,
  "\u2581replaced": 7734,
  "\u2581resist": 7735,
  "\u2581\u3053\u3081": 7736,
  "\u2581\u907f\u96e3": 7737,
  "\u7121\u52b9": 7738,
  "\u2581Pre": 7739,
  "\u306a\u3089\u3073": 7740,
  "\u7d66": 7741,
  "\u2581heading": 7742,
  "\u2581dies": 7743,
  "\u2581Daddy": 7744,
  "\u2581\u80b2\u3066": 7745,
  "\u2581\u8a34\u3048": 7746,
  "\u30ab\u30fc\u30c9": 7747,
  "\u2581Memorial": 7748,
  "\u2581Trust": 7749,
  "\u2581necessarily": 7750,
  "\u2581reign": 7751,
  "\u30bc": 7752,
  "\u7c73": 7753,
  "\u2581requirements": 7754,
  "\u2581\u533a": 7755,
  "\u2581\u7206\u5f3e": 7756,
  "\u2581\u820c": 7757,
  "\u2581\u9ad8\u3055": 7758,
  "\u5236": 7759,
  "\u2581cop": 7760,
  "\u2581fed": 7761,
  "\u2581\u307e\u3055\u304b": 7762,
  "\u2581Ho": 7763,
  "\u2581investigation": 7764,
  "\u2581\u306a\u305c\u304b": 7765,
  "\u2581\u697d\u3057\u3080": 7766,
  "\u2581\u76ae\u819a": 7767,
  "ze": 7768,
  "\u2581machines": 7769,
  "\u2581\u3060\u3051\u3069": 7770,
  "\u2581\u30af\u30e9\u30b9": 7771,
  "\u2581giant": 7772,
  "\u2581listened": 7773,
  "\u2581\u6190\u308c\u307f": 7774,
  "\u2581\u7570\u6559": 7775,
  "\u2581\u8089\u4f53": 7776,
  "\u7247": 7777,
  "responsibilities": 7778,
  "\u258123:": 7779,
  "\u2581detail": 7780,
  "\u2581producing": 7781,
  "\u2581\u75b2\u308c": 7782,
  "\u2581\u898f\u5247": 7783,
  "\u5264": 7784,
  "\u53d7\u3051\u5165\u308c": 7785,
  "\u9802": 7786,
  "\u2581Bye": 7787,
  "\u2581attendance": 7788,
  "\u2581foundation": 7789,
  "\u2581hiding": 7790,
  "\u2581restored": 7791,
  "\u2581sum": 7792,
  "\u2581IT": 7793,
  "\u2581conclude": 7794,
  "\u2581refers": 7795,
  "\u2581Until": 7796,
  "\u2581assist": 7797,
  "\u2581commands": 7798,
  "\u2581lawyer": 7799,
  "\u2581northern": 7800,
  "\u2581\u30a2\u30ca": 7801,
  "\u2581\u611f\u52d5": 7802,
  "\u793c\u62dd": 7803,
  "\u2581Philippians": 7804,
  "\u2581engaged": 7805,
  "\u2581freely": 7806,
  "\u2581treasure": 7807,
  "\u2581\u307e\u3053\u3068": 7808,
  "\u2581\u52d5": 7809,
  "\u2581\u754c": 7810,
  "\u2581\u88fd": 7811,
  "\u5150": 7812,
  "\u5e8a": 7813,
  "\u96a0\u308c": 7814,
  "ti": 7815,
  "\u2581economy": 7816,
  "\u2581pagan": 7817,
  "\u2581responded": 7818,
  "\u2581\u8ca1\u7523": 7819,
  "\u3084\u308a\u65b9": 7820,
  "\u691c\u7d22": 7821,
  "\u2581watched": 7822,
  "\u2581\u3044\u304b\u304c": 7823,
  "\u2581\u533b\u8005": 7824,
  "\u30d1\u30fc\u30c6\u30a3\u30fc": 7825,
  "\u5272": 7826,
  "\u63d0\u4f9b": 7827,
  "\u8981\u6c42": 7828,
  "\u95a2\u308f": 7829,
  "\u2581Prophet": 7830,
  "\u2581midst": 7831,
  "\u2581\u76f8\u7d9a": 7832,
  "\u2581\u8caa\u6b32": 7833,
  "\u305f\u3060\u3051": 7834,
  "\u7121\u3057": 7835,
  "\u25816,7": 7836,
  "\u2581CD": 7837,
  "\u2581Sun": 7838,
  "\u2581stock": 7839,
  "\u2581\u5c0e\u304f": 7840,
  "\u7ba1": 7841,
  "17": 7842,
  "\u30d0\u30e9": 7843,
  "\u6b6f": 7844,
  "\u8b66\u5b98": 7845,
  "\u2581Rom": 7846,
  "\u2581\u3042\u307e\u308a\u306b": 7847,
  "\u2581\u304a\u306f\u3088\u3046": 7848,
  "\u5947": 7849,
  "\u60b2\u60e8": 7850,
  "tra": 7851,
  "\u2581glorious": 7852,
  "\u2581supplies": 7853,
  "\u2581\u30d3\u30c7\u30aa": 7854,
  "\u2581\u51e6\u7406": 7855,
  "\u30d8": 7856,
  "\u73fe\u5b9f": 7857,
  "\u2581Ecclesiastes": 7858,
  "\u2581Italian": 7859,
  "\u2581\u5584": 7860,
  "\u679a": 7861,
  "[": 7862,
  "\u2581Far": 7863,
  "\u2581Lu": 7864,
  "\u2581ordinary": 7865,
  "\u306a\u304a": 7866,
  "\u5be9\u5224": 7867,
  "\u72c2": 7868,
  "sp": 7869,
  "\u2581\u5c5e\u3059\u308b": 7870,
  "\u672c\u6c17": 7871,
  "\u2581balanced": 7872,
  "\u2581zeal": 7873,
  "\u2581\u5e74\u9593": 7874,
  "\u2581\u6575\u5bfe": 7875,
  "\u2581\u9375": 7876,
  "\u5e30\u308a": 7877,
  "\u2581\u6c38": 7878,
  "\u2581\u76d7": 7879,
  "\u2581(1)": 7880,
  "\u2581Indian": 7881,
  "\u2581bother": 7882,
  "\u2581sources": 7883,
  "\u2581\u6551\u308f": 7884,
  "ain": 7885,
  "dis": 7886,
  "\u2581printed": 7887,
  "\u2581\u308f\u3056": 7888,
  "\u2581\u30df": 7889,
  "\u3044\u304b": 7890,
  "ap": 7891,
  "\u2581Ad": 7892,
  "\u2581Bo": 7893,
  "\u2581temporary": 7894,
  "\u2581\u8d85\u3048\u308b": 7895,
  "\u307e\u305a": 7896,
  "\u2581cards": 7897,
  "\u2581outcome": 7898,
  "ji": 7899,
  "port": 7900,
  "\u2581headed": 7901,
  "\u2581imp": 7902,
  "\u2581lessons": 7903,
  "\u2581supported": 7904,
  "\u2581Greece": 7905,
  "\u2581overseers": 7906,
  "\u2581\u8cc7\u91d1": 7907,
  "\u3046\u306d": 7908,
  "\u30fc\u30f3": 7909,
  "\u2581\u5dee\u3057\u4f38\u3079": 7910,
  "\u2581corruption": 7911,
  "\u2581intelligent": 7912,
  "\u2581\u304d\u3061\u3093\u3068": 7913,
  "\u2581\u4f55\u5343": 7914,
  "\u533b": 7915,
  "\u2581harder": 7916,
  "\u2581islands": 7917,
  "\u2581thirty": 7918,
  "\u307f\u306a": 7919,
  "\u652f\u914d": 7920,
  "\u7d4c\u6e08": 7921,
  "\u2581Body": 7922,
  "\u2581\u5fc5\u305a\u3057\u3082": 7923,
  "\u2581\u6311\u6226": 7924,
  "\u6d41\u308c": 7925,
  "\u8077": 7926,
  "ip": 7927,
  "\u2581tobacco": 7928,
  "\u2581\u5b8c\u6210": 7929,
  "\u3089\u3063": 7930,
  "\u2581exciting": 7931,
  "\u2581\u30e1\u30fc\u30eb": 7932,
  "\u2581\u72ec\u8eab": 7933,
  "\u822a\u7a7a": 7934,
  "\u2581Ka": 7935,
  "\u2581searching": 7936,
  "\u2581\u3046\u308c\u3057": 7937,
  "can": 7938,
  "\u2581lift": 7939,
  "\u63f4\u52a9": 7940,
  "\u258121,": 7941,
  "\u2581Washington": 7942,
  "\u2581symptoms": 7943,
  "\u2581\u30a2\u30ea": 7944,
  "\u2581\u8b58\u5225": 7945,
  "\u81ea\u3089": 7946,
  "AN": 7947,
  "\u2581campaign": 7948,
  "\u2581communicate": 7949,
  "\u2581\u547c\u5438": 7950,
  "\u2581\u63b2\u8f09": 7951,
  "\u2581\u7247": 7952,
  "\u9580": 7953,
  "\u2581teaches": 7954,
  "\u2581grass": 7955,
  "\u2581\u809d\u8981": 7956,
  "\u307c": 7957,
  "\u3092\u4f5c\u6210": 7958,
  "\u258152": 7959,
  "\u2581deserve": 7960,
  "\u2581\u8ca7\u56f0": 7961,
  "\u725b": 7962,
  "\u2581royal": 7963,
  "\u2581shame": 7964,
  "\u2581\u3084\u3059\u304f": 7965,
  "\u2581\u8cb7\u3046": 7966,
  "\u30af\u30bd": 7967,
  "\u2581Says": 7968,
  "\u2581divide": 7969,
  "\u2581\u4ea4\u901a": 7970,
  "\u3061\u306b": 7971,
  "Who": 7972,
  "\u2581alert": 7973,
  "\u2581healing": 7974,
  "\u2581\u30c7\u30fc\u30bf": 7975,
  "\u544a\u3052": 7976,
  "\u2581WHAT": 7977,
  "\u2581\u51ac": 7978,
  "\u2581\u540c\u3058\u304f": 7979,
  "\u2581\u62d2\u5426": 7980,
  "\u2581\u7f8a\u98fc\u3044": 7981,
  "\u2581whenever": 7982,
  "\u2581\u534a\u5206": 7983,
  "\u2581\u85ac\u7269": 7984,
  "ical": 7985,
  "\u2581Things": 7986,
  "\u2581kitchen": 7987,
  "\u2581st": 7988,
  "\u2581unbelievers": 7989,
  "\u3068\u3057": 7990,
  "om": 7991,
  "\u25811975": 7992,
  "\u2581Ba": 7993,
  "\u2581Nazi": 7994,
  "\u2581\u30a2\u30a4": 7995,
  "\u30ab\u30eb": 7996,
  "\u30de\u30de": 7997,
  "\u5b97\u6559": 7998,
  "\u7c89": 7999,
  "\u2581library": 8000,
  "\u2581\u5d29\u58ca": 8001,
  "\u6f14": 8002,
  "\u2581tremendous": 8003,
  "\u2581\u3064\u304b": 8004,
  "\u904e\u53bb": 8005,
  "\u2581\u6b7b\u4f53": 8006,
  "\u3042\u3042": 8007,
  "\u2581bless": 8008,
  "\u2581\u30de\u30eb": 8009,
  "\u56fd\u306e": 8010,
  "\u2581runs": 8011,
  "\u2581suggested": 8012,
  "\u9762\u767d\u3044": 8013,
  "ni": 8014,
  "\u2581\u30b3\u30f3": 8015,
  "\u5c06\u6765": 8016,
  "\u7d42\u4e86": 8017,
  "\u2581\u3044\u3089": 8018,
  "\u2581\u4ed8\u3051\u52a0\u3048": 8019,
  "\u5de1\u56de": 8020,
  "\u611f\u60c5": 8021,
  "\u751f\u5f92": 8022,
  "\u9670": 8023,
  "\u2581William": 8024,
  "\u2581functions": 8025,
  "\u2581\u4ea1\u304f\u306a": 8026,
  "\u2581\u6279\u5224": 8027,
  "\u30c8\u30c3\u30d7": 8028,
  "\u65c5\u884c": 8029,
  "\u6709\u7f6a": 8030,
  "\u9060": 8031,
  "field": 8032,
  "\u2581band": 8033,
  "\u30dc\u30bf\u30f3": 8034,
  "\u2581challenges": 8035,
  "\u2581demonstrate": 8036,
  "\u2581\u61f8": 8037,
  "\u30b7\u30a2": 8038,
  "\u30c7\u30f3": 8039,
  "\u2581Wall": 8040,
  "\u2581owner": 8041,
  "\u2581th": 8042,
  "\u2581\u4e88\u60f3": 8043,
  "\u2581\u6b32\u3057\u3044": 8044,
  "\u30e9\u30a4\u30f3": 8045,
  "\u2581difficulty": 8046,
  "\u2581rulership": 8047,
  "\u2581\u5076\u7136": 8048,
  "\u2581\u8a69\u7bc7": 8049,
  "\u9006": 8050,
  "\u2581\u526f": 8051,
  "\u305d\u3053\u3067": 8052,
  "\u2581Close": 8053,
  "\u2581Council": 8054,
  "\u2581Religion": 8055,
  "\u2581fornication": 8056,
  "\u2581\u5199\u672c": 8057,
  "\u2581\u5bc4\u305b": 8058,
  "\u30b7\u30e7\u30f3": 8059,
  "\u30ef\u30f3": 8060,
  "\u5358": 8061,
  "\u5c0b\u306d": 8062,
  "\u5f1f": 8063,
  "\u8239\u9577": 8064,
  "\u2581Save": 8065,
  "\u2581author": 8066,
  "\u2581possess": 8067,
  "\u601d\u3044\u51fa": 8068,
  "ML": 8069,
  "\u2581songs": 8070,
  "\u2581\u3044\u304b\u306b": 8071,
  "\u2581\u5c02\u5fc3": 8072,
  "\u304a\u3046\u3068": 8073,
  "\u2581Har": 8074,
  "\u2581carbon": 8075,
  "\u2581reduce": 8076,
  "\u2581satisfied": 8077,
  "\u2581\u5411\u3053\u3046": 8078,
  "\u2581\u5831\u9053": 8079,
  "\u30af\u30bf\u30fc": 8080,
  "get": 8081,
[...]
